#include "nnedi.h"

ALIGNED_16(const float nnedi_test_weights[252]) = {
    -0x1.912c80p-1,  0x1.ca1e40p-4, -0x1.2b7750p-6,  0x1.cb7c68p-2,
    -0x1.3ae404p-1, -0x1.6c6b48p-2, -0x1.a878d6p-2, -0x1.09ed74p-7,
    -0x1.9e25a0p-1, -0x1.cd560cp-1,  0x1.f0251ep-1,  0x1.f57664p-2,
     0x1.6e13bcp-1, -0x1.7d9f54p-1,  0x1.716e10p-5,  0x1.7602b6p-1,
     0x1.d6575cp-1,  0x1.6e48eep+1,  0x1.8f652ep-1,  0x1.a0058ep-1,
     0x1.289e82p-7,  0x1.fee69ep-4, -0x1.5f8288p-2, -0x1.a23676p-2,
    -0x1.f11f5ap-3, -0x1.945edap-3, -0x1.51fb42p-1, -0x1.b86414p-4,
    -0x1.1cd914p-2, -0x1.b60a9ap-1, -0x1.3d99dcp+0, -0x1.bc671ap-1,
    -0x1.1e8f46p+0, -0x1.e978d8p-2, -0x1.614502p-6, -0x1.9b0b84p+0,
     0x1.0df5f6p-2, -0x1.310812p+0, -0x1.bbb18cp-1,  0x1.2b503ap-3,
     0x1.071ffep-2, -0x1.c7495ap-2,  0x1.2838f8p-1, -0x1.2cb73ap-1,
    -0x1.0a2368p-1,  0x1.e2566cp-1,  0x1.005a52p+0, -0x1.040a88p-3,
    -0x1.e7c5dep-1,  0x1.80ad66p-4, -0x1.aa432ap-1, -0x1.c6478ep+0,
    -0x1.658cb6p-2, -0x1.d1517ep-3, -0x1.79b8c0p-2,  0x1.213ec4p-3,
    -0x1.cfe0b4p-2, -0x1.095a8cp-2,  0x1.62915cp-5,  0x1.674cbap-1,
     0x1.1faf48p-1,  0x1.2c0d72p-1,  0x1.d44f4cp-3,  0x1.d88792p+0,
     0x1.2d7e3cp-1,  0x1.c71d5ap-1,  0x1.94d97cp-1,  0x1.c48880p-2,
     0x1.9b8786p-1, -0x1.91ad3cp-3,  0x1.7d5c4ap-4,  0x1.9bd84cp-4,
    -0x1.96333cp-4,  0x1.8ffb4ep-2, -0x1.2871c2p-1, -0x1.0e0284p-3,
     0x1.babec0p-1,  0x1.164af8p-1, -0x1.aa6efep-1, -0x1.35d9c6p-2,
     0x1.2e83e6p-2, -0x1.0fe7d2p-2,  0x1.8dd00ep-1, -0x1.4254a2p-1,
     0x1.b31bc8p-2,  0x1.4ede22p-5,  0x1.abea98p-1,  0x1.791244p-4,
    -0x1.3b53eap+0, -0x1.1dc840p+0,  0x1.4e7832p-1,  0x1.67d0eap-1,
     0x1.47e5b6p-3, -0x1.f8f550p-1,  0x1.cd43d2p-2, -0x1.42d1dap-4,
    -0x1.4f42d0p-3, -0x1.f8f43ep-4, -0x1.cbccdep-1,  0x1.21f452p-5,
    -0x1.4f2f54p-4, -0x1.2a12f2p-1,  0x1.2a9964p-2, -0x1.08b7e4p-1,
     0x1.1559aep+0,  0x1.140e28p-3, -0x1.b2726cp-2,  0x1.e25706p-3,
    -0x1.30287ap-3, -0x1.cbe7b4p-2,  0x1.a4c5dep-1, -0x1.9b606ap-1,
    -0x1.2c32cep-1, -0x1.03e18ap+0,  0x1.48f202p-6, -0x1.bfb766p-1,
    -0x1.92dfb4p-3, -0x1.d96ba8p-2,  0x1.17f064p-1,  0x1.c71212p-3,
     0x1.b3e4e4p-1,  0x1.94feb6p+0,  0x1.8c7994p+0,  0x1.444146p-1,
     0x1.233cf6p-1,  0x1.90119cp+0,  0x1.436ab6p+0,  0x1.45a78ap-4,
     0x1.40e65cp-2,  0x1.3cf3e0p-1, -0x1.4fe132p-2,  0x1.299f2ep-3,
    -0x1.fa312cp-3, -0x1.0cec44p+0, -0x1.6512f4p-2, -0x1.65a7ecp-2,
    -0x1.87a7bep-1,  0x1.82fd06p-3, -0x1.b82ab8p-3,  0x1.be0d9cp-1,
    -0x1.e6c0aep-3, -0x1.e78c10p-2, -0x1.5a3b18p-1,  0x1.79b1d6p-2,
    -0x1.f6c20ap-2,  0x1.e7be8cp-3,  0x1.7958acp-3,  0x1.46844ep-3,
     0x1.f2557ep-1, -0x1.0d3860p-2,  0x1.877228p-2, -0x1.e4235cp-3,
     0x1.256f7ap-2,  0x1.911684p-2, -0x1.72593ep+0, -0x1.06ee52p-1,
    -0x1.3adf2ap-2,  0x1.3e7c00p-3, -0x1.b25516p-1, -0x1.c92422p-4,
    -0x1.e3091ap+0,  0x1.8d08b0p-5,  0x1.9cb7a0p-2, -0x1.2e47aap-2,
     0x1.004fa4p-3,  0x1.22f6b4p-2, -0x1.fcecfap-3,  0x1.237fbep-1,
    -0x1.908feep-1, -0x1.5c4b4ap-1, -0x1.8956d6p+0, -0x1.5a2f6cp-1,
    -0x1.db73dcp-2, -0x1.564accp+0, -0x1.2fbdb4p+0,  0x1.ad8e4cp-1,
     0x1.8dde56p-2, -0x1.14eafcp+0,  0x1.993e6ep-1, -0x1.1927f2p-3,
     0x1.5d344cp-1,  0x1.7b5f7ep+0,  0x1.ddd572p-1,  0x1.b17562p+0,
    -0x1.505fbcp-1,  0x1.5a062ep-3, -0x1.558a54p-1, -0x1.f4b5fcp-4,
     0x1.0ac116p+0,  0x1.13a84cp-1, -0x1.cefca4p-1, -0x1.2d281ap-2,
     0x1.83aea8p-1,  0x1.b39084p-2, -0x1.cd129ep-4, -0x1.87eb7ap-1,
    -0x1.d58256p-3,  0x1.ac564ep+0, -0x1.a03592p-1, -0x1.dee132p-1,
    -0x1.2164dap-3,  0x1.1fbce4p-1, -0x1.4150f8p-2, -0x1.38e122p+0,
     0x1.4c06e0p-12, 0x1.152e30p-5,  0x1.c36b44p+0, -0x1.4187acp-1,
    -0x1.486978p-1,  0x1.fd2bd8p-1, -0x1.336f98p-2,  0x1.f56744p-5,
    -0x1.25ae1ep+0,  0x1.053b2cp-3,  0x1.8b804cp-1,  0x1.14033ap+0,
     0x1.13cca2p-1, -0x1.87eb94p-2, -0x1.d2ceaep-2,  0x1.d91378p-4,
    -0x1.606034p+0,  0x1.46afd0p-1,  0x1.48168ep+0,  0x1.37c452p+0,
     0x1.87326cp-3, -0x1.60a680p-3,  0x1.3d84c8p-3,  0x1.088b06p-1,
    -0x1.117408p-1,  0x1.472d6ep+0, -0x1.9a5798p-3, -0x1.9fdaecp-1,
     0x1.1a6b1cp-1, -0x1.3d7e80p+0,  0x1.31014ap-1,  0x1.4c99f2p-1,
    -0x1.82f0dap-4,  0x1.4f5c4cp-1,  0x1.e99c70p-3,  0x1.2e5d74p-2,
    -0x1.c1d9bap-3, -0x1.391dc2p-2,  0x1.468136p-2,  0x1.ca0386p-3,
     0x1.129c88p-1, -0x1.2aaf22p+0, -0x1.241b86p-1,  0x1.2fc928p+0,
     0x1.a2814cp-3,  0x1.7f4b80p-1,  0x1.f7d9e6p+0,  0x1.d642e2p-3,
};

ALIGNED_16(static const float scale_weights_8x6x16[49*32]) = {
     0x1.c3c812p+1,  0x1.b258e8p+1,  0x1.19cdb2p+2,  0x1.61f238p+2,
     0x1.41bc30p+2,  0x1.2f12f8p+2,  0x1.41569ep+2,  0x1.29745cp+2,
    -0x1.cd9d60p+2, -0x1.01f030p+3, -0x1.94a514p+2, -0x1.22dd5ap+2,
    -0x1.a48794p+2, -0x1.f5e814p+2, -0x1.f3b570p+2, -0x1.b0965ep+2,
    -0x1.340336p+2, -0x1.970d06p+2, -0x1.e48af4p+1, -0x1.987e46p-3,
     0x1.89147ep-1, -0x1.9e3122p+0, -0x1.27842cp-1,  0x1.0dff46p+1,
    -0x1.2c048cp+2, -0x1.012388p+2, -0x1.e2a04ep-4,  0x1.bcf12ep-1,
    -0x1.d427b2p+0, -0x1.29ad18p+2, -0x1.4a4f66p+2, -0x1.91f32cp+1,
     0x1.596e58p+0,  0x1.ec8a9cp-1,  0x1.e44290p-1,  0x1.cc3ea6p+0,
     0x1.21967ep-2, -0x1.be8bbep-3,  0x1.24ef5ap-2,  0x1.cd3e10p-3,
     0x1.43f7dap+2,  0x1.3f737ap+2,  0x1.62d5d6p+2,  0x1.85fbbap+2,
     0x1.8322ecp+2,  0x1.9dae48p+2,  0x1.7a94c4p+2,  0x1.3b51bep+2,
     0x1.e84dc2p+1,  0x1.d322d6p+1,  0x1.29e2f2p+2,  0x1.711ca0p+2,
     0x1.51742ap+2,  0x1.3a8f22p+2,  0x1.4f87d2p+2,  0x1.372b1cp+2,
    -0x1.c027c6p+2, -0x1.fe63cep+2, -0x1.9547a0p+2, -0x1.1b891cp+2,
    -0x1.90e72ep+2, -0x1.e5e19cp+2, -0x1.e139ecp+2, -0x1.a24542p+2,
    -0x1.2c22c2p+2, -0x1.8609a8p+2, -0x1.836764p+1, -0x1.bf38c2p-3,
     0x1.357728p-2, -0x1.ac5278p+0, -0x1.fa0a36p-2,  0x1.13fa4cp+1,
    -0x1.2223c0p+2, -0x1.db4cccp+1, -0x1.377d70p-2,  0x1.877a9ep+0,
    -0x1.d05ecap-1, -0x1.1a241ep+2, -0x1.36cd5cp+2, -0x1.61cc9cp+1,
     0x1.b3c7a8p+0,  0x1.443dbap+0,  0x1.44d644p+0,  0x1.095120p+1,
     0x1.e2caa4p-2,  0x1.0439a4p-8,  0x1.09b276p-1,  0x1.d19d44p-2,
     0x1.55cff8p+2,  0x1.4b9240p+2,  0x1.705d32p+2,  0x1.958860p+2,
     0x1.91f024p+2,  0x1.ae3286p+2,  0x1.8a2a1cp+2,  0x1.4adbaap+2,
     0x1.d218dap+1,  0x1.c4ea7cp+1,  0x1.1e5fa6p+2,  0x1.6b38e4p+2,
     0x1.4a22d0p+2,  0x1.31fb3ep+2,  0x1.481a24p+2,  0x1.2d699ep+2,
    -0x1.cbcf56p+2, -0x1.03674cp+3, -0x1.a4d1ecp+2, -0x1.25cd7cp+2,
    -0x1.9d68a8p+2, -0x1.ecca08p+2, -0x1.ec73fap+2, -0x1.a11afep+2,
    -0x1.32e31ap+2, -0x1.8f5d12p+2, -0x1.7668c8p+1,  0x1.813078p-2,
     0x1.55b47ap-1, -0x1.6484dcp+0, -0x1.13f600p-1,  0x1.261594p+1,
    -0x1.13371ep+2, -0x1.d171fep+1, -0x1.040ff2p-8,  0x1.8aa85cp+0,
    -0x1.3c2b4ep+0, -0x1.3a09cap+2, -0x1.45bf52p+2, -0x1.a18702p+1,
     0x1.86876ep+0,  0x1.fa94aep-1,  0x1.e11d12p-1,  0x1.b8f62ap+0,
     0x1.242a2ep-2, -0x1.257dbep-2,  0x1.7148a8p-2,  0x1.787226p-3,
     0x1.468782p+2,  0x1.44e95ap+2,  0x1.662070p+2,  0x1.8c9dd8p+2,
     0x1.86cd26p+2,  0x1.a78d16p+2,  0x1.7f4c22p+2,  0x1.443b2ep+2,
     0x1.dbec56p+1,  0x1.b45594p+1,  0x1.2698e6p+2,  0x1.667dc0p+2,
     0x1.47aaacp+2,  0x1.3a4092p+2,  0x1.435366p+2,  0x1.32b95ap+2,
    -0x1.c58f08p+2, -0x1.032b40p+3, -0x1.969a68p+2, -0x1.29eca8p+2,
    -0x1.9ece06p+2, -0x1.f1f55ep+2, -0x1.ee01b8p+2, -0x1.a91980p+2,
    -0x1.33a696p+2, -0x1.8f69fcp+2, -0x1.af4be2p+1,  0x1.04e24ep-4,
     0x1.4dbe32p-1, -0x1.7579cep+0, -0x1.d43856p-2,  0x1.219b62p+1,
    -0x1.1cb9f8p+2, -0x1.df0788p+1, -0x1.a584acp-5,  0x1.391f90p+0,
    -0x1.3a52d0p+0, -0x1.243a32p+2, -0x1.47160ap+2, -0x1.888c1ep+1,
     0x1.84a440p+0,  0x1.ecfbb4p-1,  0x1.483b68p+0,  0x1.017602p+1,
     0x1.779e2cp-2, -0x1.32e592p-4,  0x1.3e5c0ap-2,  0x1.5913e6p-2,
     0x1.468962p+2,  0x1.488b2ep+2,  0x1.62029ep+2,  0x1.89e2d6p+2,
     0x1.87d326p+2,  0x1.a213bcp+2,  0x1.8285bep+2,  0x1.4021f0p+2,
     0x1.cc8b74p+1,  0x1.bb4ff8p+1,  0x1.1ee540p+2,  0x1.670a74p+2,
     0x1.445234p+2,  0x1.33bec2p+2,  0x1.41147ap+2,  0x1.2c1bdep+2,
    -0x1.c956f8p+2, -0x1.033618p+3, -0x1.9fbdbcp+2, -0x1.2dabb0p+2,
    -0x1.a65906p+2, -0x1.ef9b24p+2, -0x1.f0a064p+2, -0x1.a0fb8cp+2,
    -0x1.45825ap+2, -0x1.9cd934p+2, -0x1.d4e0c0p+1,  0x1.e54d64p-2,
     0x1.5f9322p-1, -0x1.9a7a84p+0, -0x1.154f6ap-1,  0x1.095e48p+1,
    -0x1.1b5c76p+2, -0x1.f1f4b0p+1, -0x1.dc570cp-8,  0x1.e12c68p+0,
    -0x1.73a224p+0, -0x1.3af456p+2, -0x1.4f3136p+2, -0x1.b1998cp+1,
     0x1.7ad9bcp+0,  0x1.f76356p-1,  0x1.0ef282p+0,  0x1.c09afap+0,
     0x1.2bc882p-2, -0x1.e008fcp-4,  0x1.4e95bap-2,  0x1.529460p-2,
     0x1.44b1fep+2,  0x1.434c8ep+2,  0x1.63b2d8p+2,  0x1.88eb86p+2,
     0x1.84a332p+2,  0x1.a33b1ap+2,  0x1.7d474ep+2,  0x1.3ed98cp+2,
     0x1.e2140ap+1,  0x1.c7aa76p+1,  0x1.26cdb0p+2,  0x1.6b3f72p+2,
     0x1.4dd31ep+2,  0x1.363374p+2,  0x1.4b0356p+2,  0x1.31f346p+2,
    -0x1.c94ea0p+2, -0x1.006ceep+3, -0x1.9b7a50p+2, -0x1.216ce2p+2,
    -0x1.98efc4p+2, -0x1.ea813ep+2, -0x1.ea61ccp+2, -0x1.a1ba00p+2,
    -0x1.2e68e0p+2, -0x1.971f8ep+2, -0x1.3c5c1ap+1,  0x1.026e06p-3,
     0x1.3a27f8p-1, -0x1.5d9478p+0, -0x1.f41e5ap-2,  0x1.2d5574p+1,
    -0x1.144a0ep+2, -0x1.dd7bf8p+1, -0x1.190972p-2,  0x1.5c9a26p+0,
    -0x1.21097ap-1, -0x1.2b08f2p+2, -0x1.3a0128p+2, -0x1.898200p+1,
     0x1.8ed0c4p+0,  0x1.1ac62cp+0,  0x1.38e5a0p+0,  0x1.db37e6p+0,
     0x1.350a48p-3, -0x1.b5c1e6p-3,  0x1.b182acp-2,  0x1.4f5a8ep-2,
     0x1.4a9054p+2,  0x1.47d6c0p+2,  0x1.68e128p+2,  0x1.8f3c18p+2,
     0x1.8b1a6ap+2,  0x1.ac8e76p+2,  0x1.81b4e2p+2,  0x1.47fdbep+2,
     0x1.cfee7ap+1,  0x1.c09714p+1,  0x1.1da44ep+2,  0x1.66abf6p+2,
     0x1.462c02p+2,  0x1.309430p+2,  0x1.45ace2p+2,  0x1.2bad50p+2,
    -0x1.ce06c2p+2, -0x1.03cca2p+3, -0x1.aa06e4p+2, -0x1.2b850ep+2,
    -0x1.a3dd08p+2, -0x1.f490eep+2, -0x1.f40a94p+2, -0x1.a98df2p+2,
    -0x1.2ce760p+2, -0x1.8fd26ap+2, -0x1.61e4dap+1, -0x1.b14eb8p-4,
     0x1.e4ffc6p-10,-0x1.98e79cp+0, -0x1.1f8ad6p-1,  0x1.15b72ap+1,
    -0x1.180d9cp+2, -0x1.e3822cp+1, -0x1.098346p-1,  0x1.9805bcp+0,
    -0x1.1f94c2p-1, -0x1.256eecp+2, -0x1.3f75f8p+2, -0x1.8b7f1cp+1,
     0x1.70ce1ep+0,  0x1.0635a2p+0,  0x1.1e07bap+0,  0x1.c2344ep+0,
     0x1.d05278p-3, -0x1.fbb854p-3,  0x1.7086d0p-2,  0x1.024336p-2,
     0x1.469f64p+2,  0x1.435594p+2,  0x1.62951ep+2,  0x1.890cb2p+2,
     0x1.882cd6p+2,  0x1.a56c2ep+2,  0x1.7f4346p+2,  0x1.422d3ap+2,
     0x1.d39736p+1,  0x1.ce1810p+1,  0x1.20ca94p+2,  0x1.6e338ap+2,
     0x1.4bcc2ep+2,  0x1.33faaep+2,  0x1.4b6bb6p+2,  0x1.2ebceep+2,
    -0x1.c5090cp+2, -0x1.01edbep+3, -0x1.a0725ep+2, -0x1.281254p+2,
    -0x1.9f47e4p+2, -0x1.e96fbap+2, -0x1.ebf478p+2, -0x1.9e5192p+2,
    -0x1.3334dap+2, -0x1.8e0ea6p+2, -0x1.8ecfa6p+1,  0x1.4b41e4p-3,
     0x1.310434p-1, -0x1.7349e8p+0, -0x1.dbe368p-2,  0x1.1ac612p+1,
    -0x1.197976p+2, -0x1.daa25ap+1, -0x1.c612a0p-4,  0x1.a0a728p+0,
    -0x1.271344p+0, -0x1.2d2ee6p+2, -0x1.4367d8p+2, -0x1.92d8f2p+1,
     0x1.7f4f5ap+0,  0x1.13d806p+0,  0x1.02ba8ep+0,  0x1.c09278p+0,
     0x1.73080ap-2, -0x1.53087cp-3,  0x1.c11798p-2,  0x1.38db92p-2,
     0x1.4cde56p+2,  0x1.477dbap+2,  0x1.6bbdf8p+2,  0x1.9027eap+2,
     0x1.8950dcp+2,  0x1.ab1d7cp+2,  0x1.822a76p+2,  0x1.462e26p+2,
     0x1.b33d78p+1,  0x1.a04566p+1,  0x1.110c58p+2,  0x1.575e7ep+2,
     0x1.382f84p+2,  0x1.21fc5ap+2,  0x1.35d6dap+2,  0x1.1cb9bcp+2,
    -0x1.da4878p+2, -0x1.0bcd6ap+3, -0x1.b1527ep+2, -0x1.3f6926p+2,
    -0x1.b16180p+2, -0x1.fd93fep+2, -0x1.ff6feep+2, -0x1.b52c42p+2,
    -0x1.4530b2p+2, -0x1.a7212ap+2, -0x1.97be5ep+1,  0x1.45203cp-2,
     0x1.4edd26p-2, -0x1.c3f8bep+0, -0x1.8d06dcp-1,  0x1.efd124p+0,
    -0x1.2ddd14p+2, -0x1.026784p+2, -0x1.3ea424p-2,  0x1.c8a7d0p+0,
    -0x1.179920p+0, -0x1.3d333ap+2, -0x1.5410b2p+2, -0x1.b24f5ap+1,
     0x1.35620ap+0,  0x1.93e3e8p-1,  0x1.af795cp-1,  0x1.7cfdaep+0,
    -0x1.1ecfb2p-6, -0x1.d7cae2p-2,  0x1.a90352p-4, -0x1.d0db60p-7,
     0x1.3814f6p+2,  0x1.350e66p+2,  0x1.55c4b6p+2,  0x1.7b4580p+2,
     0x1.766264p+2,  0x1.97f888p+2,  0x1.6ef318p+2,  0x1.33af80p+2,
     0x1.e7b33ap+1,  0x1.d3eba4p+1,  0x1.2a6b04p+2,  0x1.709818p+2,
     0x1.52aadap+2,  0x1.3b85f2p+2,  0x1.515ef0p+2,  0x1.35d712p+2,
    -0x1.c409aap+2, -0x1.005432p+3, -0x1.97e862p+2, -0x1.196e72p+2,
    -0x1.962312p+2, -0x1.ec7c16p+2, -0x1.eab010p+2, -0x1.a3f332p+2,
    -0x1.198768p+2, -0x1.813c36p+2, -0x1.42ab06p+1, -0x1.a722d2p-3,
     0x1.5e81bep-5, -0x1.57df1ep+0, -0x1.a92254p-2,  0x1.372ff4p+1,
    -0x1.169c78p+2, -0x1.d1fa1cp+1, -0x1.6b2c16p-1,  0x1.4b6b82p+0,
    -0x1.fe1034p-2, -0x1.179310p+2, -0x1.34b6e6p+2, -0x1.67c15ep+1,
     0x1.719b4ap+0,  0x1.1fb674p+0,  0x1.3c6dcap+0,  0x1.027eb4p+1,
     0x1.c4775ep-2, -0x1.dbd8f4p-4,  0x1.e909b2p-2,  0x1.85111ap-2,
     0x1.52addcp+2,  0x1.4d7b7cp+2,  0x1.6f6d52p+2,  0x1.91bef2p+2,
     0x1.92c2a2p+2,  0x1.aee1bap+2,  0x1.8a2ed4p+2,  0x1.4a66b8p+2,
     0x1.d74ea4p+1,  0x1.b934e6p+1,  0x1.2417f2p+2,  0x1.6637b2p+2,
     0x1.47ea76p+2,  0x1.372daep+2,  0x1.448e7ep+2,  0x1.309334p+2,
    -0x1.c5d098p+2, -0x1.042330p+3, -0x1.98c068p+2, -0x1.2b6beap+2,
    -0x1.9f6a52p+2, -0x1.f07932p+2, -0x1.eee03cp+2, -0x1.a7141ap+2,
    -0x1.34320ep+2, -0x1.909bfcp+2, -0x1.b252dep+1,  0x1.6e1d8ep-5,
     0x1.4e1444p-1, -0x1.77ba4ep+0, -0x1.e3574ap-2,  0x1.1cf808p+1,
    -0x1.1e260ep+2, -0x1.e0eaa6p+1, -0x1.07a1bep-4,  0x1.3ecb88p+0,
    -0x1.4b1aa6p+0, -0x1.27825ap+2, -0x1.47f908p+2, -0x1.8dc7e0p+1,
     0x1.800c0ap+0,  0x1.ff0fb8p-1,  0x1.3d2530p+0,  0x1.f155fep+0,
     0x1.7db01ep-2, -0x1.dd4ae2p-4,  0x1.52bbe2p-2,  0x1.309492p-2,
     0x1.479014p+2,  0x1.45b104p+2,  0x1.6448d2p+2,  0x1.89390cp+2,
     0x1.879c1cp+2,  0x1.a407d0p+2,  0x1.8104d6p+2,  0x1.412b24p+2,
     0x1.d20086p+1,  0x1.b43fd8p+1,  0x1.1fd61cp+2,  0x1.626576p+2,
     0x1.44b89cp+2,  0x1.328460p+2,  0x1.42e7d8p+2,  0x1.2a7620p+2,
    -0x1.d2555ep+2, -0x1.057974p+3, -0x1.9f6cfap+2, -0x1.2bdc7ep+2,
    -0x1.ad43d2p+2, -0x1.f83618p+2, -0x1.f07104p+2, -0x1.aa90a8p+2,
    -0x1.44c520p+2, -0x1.9b325ep+2, -0x1.d94294p+1, -0x1.c0f660p-3,
     0x1.417a4cp-1, -0x1.28956cp+0, -0x1.71db24p-2,  0x1.3392b6p+1,
    -0x1.0e9f04p+2, -0x1.df2da8p+1,  0x1.08ad96p-4,  0x1.9e92fep+0,
    -0x1.fedfb4p-1, -0x1.23c13cp+2, -0x1.416a62p+2, -0x1.8bf722p+1,
     0x1.71a55ep+0,  0x1.e97ffep-1,  0x1.2d9598p+0,  0x1.d17782p+0,
     0x1.ea4e04p-3, -0x1.12be2ep-2,  0x1.243a7ap-2,  0x1.3fd21ep-3,
     0x1.4684d8p+2,  0x1.43a820p+2,  0x1.630ea0p+2,  0x1.8710dap+2,
     0x1.842c54p+2,  0x1.a1a70ap+2,  0x1.7e797cp+2,  0x1.400128p+2,
     0x1.dc53eap+1,  0x1.cb68aap+1,  0x1.253c62p+2,  0x1.6c6d90p+2,
     0x1.4f709cp+2,  0x1.380d90p+2,  0x1.4cf88ap+2,  0x1.33c70ap+2,
    -0x1.c86c70p+2, -0x1.01e172p+3, -0x1.962ba2p+2, -0x1.216eecp+2,
    -0x1.981602p+2, -0x1.e80912p+2, -0x1.e92514p+2, -0x1.9f271ap+2,
    -0x1.299748p+2, -0x1.8baf4cp+2, -0x1.cb6fe8p+1, -0x1.6c9b1ep-5,
     0x1.9a4b5ep-1, -0x1.717752p+0, -0x1.a5e7e8p-2,  0x1.20c5a8p+1,
    -0x1.13a612p+2, -0x1.d29c88p+1,  0x1.678d76p-3,  0x1.649334p+0,
    -0x1.9abed4p+0, -0x1.24b966p+2, -0x1.400a90p+2, -0x1.7d13c8p+1,
     0x1.83d2eep+0,  0x1.18c470p+0,  0x1.316e26p+0,  0x1.019e56p+1,
     0x1.1575bep-1, -0x1.605d34p-4,  0x1.ad74c2p-2,  0x1.47d1dap-2,
     0x1.4f165ap+2,  0x1.497bb4p+2,  0x1.6d22e8p+2,  0x1.8e6538p+2,
     0x1.8d89d6p+2,  0x1.aae3a4p+2,  0x1.862278p+2,  0x1.466e08p+2,
     0x1.eaa5a6p+1,  0x1.e1507cp+1,  0x1.2cf2f2p+2,  0x1.78c54cp+2,
     0x1.56a4c4p+2,  0x1.413690p+2,  0x1.5751d0p+2,  0x1.3c9aaap+2,
    -0x1.b40b5ep+2, -0x1.f74156p+2, -0x1.8b3c20p+2, -0x1.0d7f04p+2,
    -0x1.8d29dap+2, -0x1.db0552p+2, -0x1.def07cp+2, -0x1.95bdb6p+2,
    -0x1.15d7a4p+2, -0x1.7d124cp+2, -0x1.692fb0p+1,  0x1.91fd4cp-4,
     0x1.b58a7cp-2, -0x1.6c02aep+0, -0x1.8a3396p-2,  0x1.273f9ep+1,
    -0x1.2351a2p+2, -0x1.d6866ep+1, -0x1.ad7458p-2,  0x1.6dc0eap+0,
    -0x1.d3ec0ep-1, -0x1.1addcap+2, -0x1.369c04p+2, -0x1.6ca7ecp+1,
     0x1.a4be8cp+0,  0x1.511ab6p+0,  0x1.543966p+0,  0x1.0ec216p+1,
     0x1.2916dep-1,  0x1.55272ep-6,  0x1.384f38p-1,  0x1.d4329cp-2,
     0x1.57d57ep+2,  0x1.514f7ep+2,  0x1.7634aep+2,  0x1.9969d4p+2,
     0x1.96dd1cp+2,  0x1.b6d310p+2,  0x1.8f1272p+2,  0x1.512bc6p+2,
     0x1.d6f8cap+1,  0x1.c33798p+1,  0x1.230be2p+2,  0x1.65319ap+2,
     0x1.4b2a14p+2,  0x1.314cd2p+2,  0x1.4840b2p+2,  0x1.2f5402p+2,
    -0x1.c7eeb6p+2, -0x1.043536p+3, -0x1.9b9db8p+2, -0x1.182b90p+2,
    -0x1.9af04cp+2, -0x1.e70bdep+2, -0x1.ee35aep+2, -0x1.a0cea4p+2,
    -0x1.273986p+2, -0x1.8b6a5ap+2, -0x1.87d9e2p+1, -0x1.ca03bap-1,
     0x1.b92ecep-2, -0x1.7fb648p+0, -0x1.13871ap-1,  0x1.18a44ap+1,
    -0x1.1edb4ap+2, -0x1.df0c18p+1, -0x1.007ffap-3,  0x1.739850p-1,
    -0x1.dd2f32p-1, -0x1.23a624p+2, -0x1.4002dap+2, -0x1.851d26p+1,
     0x1.7b8026p+0,  0x1.1eeee0p+0,  0x1.2c9874p+0,  0x1.00554ep+1,
     0x1.2a90eap-2, -0x1.4aaeb0p-3,  0x1.5e56a0p-2,  0x1.14b3b6p-2,
     0x1.4b4732p+2,  0x1.402ad8p+2,  0x1.68fde8p+2,  0x1.8ab566p+2,
     0x1.8a18dap+2,  0x1.a9abccp+2,  0x1.810e84p+2,  0x1.4443c2p+2,
     0x1.e1bce6p+1,  0x1.cbbb7ep+1,  0x1.26534cp+2,  0x1.6fae1cp+2,
     0x1.4d4b4cp+2,  0x1.3afa68p+2,  0x1.4b1ffcp+2,  0x1.344ac0p+2,
    -0x1.b69812p+2, -0x1.fb3e1ep+2, -0x1.917becp+2, -0x1.1f67ccp+2,
    -0x1.9bc9f2p+2, -0x1.e38f7cp+2, -0x1.e6ea4cp+2, -0x1.96fa7ep+2,
    -0x1.49e09cp+2, -0x1.96fce4p+2, -0x1.c22206p+1,  0x1.c2430cp-2,
     0x1.7fa0bcp-1, -0x1.52db4ap+0, -0x1.d86dbap-2,  0x1.2e673cp+1,
    -0x1.16dc86p+2, -0x1.da2cd2p+1,  0x1.44403ep-5,  0x1.a40dbep+0,
    -0x1.64c520p+0, -0x1.411fb8p+2, -0x1.4ce224p+2, -0x1.a845dap+1,
     0x1.9e5a42p+0,  0x1.1effc4p+0,  0x1.2f74b8p+0,  0x1.e89192p+0,
     0x1.cf002ep-2, -0x1.ec5ee6p-6,  0x1.021edap-1,  0x1.48770ep-2,
     0x1.4fa4e0p+2,  0x1.498ddep+2,  0x1.6cddbcp+2,  0x1.927694p+2,
     0x1.8b410ep+2,  0x1.adcd14p+2,  0x1.84118ep+2,  0x1.47a52ap+2,
    -0x1.7ba136p-5, -0x1.a9e424p-7, -0x1.03faf0p-4,  0x1.f3c9b0p-6,
     0x1.71e43cp-6, -0x1.e5a162p-7,  0x1.f9b880p-6,  0x1.bf30fcp-6,
     0x1.e816b4p-4,  0x1.07dcecp-6, -0x1.1c6df0p-9,  0x1.7402a8p-5,
    -0x1.b9e2d8p-6,  0x1.fd5c92p-7,  0x1.cdcf96p-5, -0x1.2be4bcp-7,
     0x1.f47d98p-5,  0x1.22fcecp-4, -0x1.878824p-6, -0x1.6209a6p-2,
     0x1.ad4ae4p-6, -0x1.a2d0ccp-2, -0x1.9bb3f2p-4, -0x1.b860aep-3,
     0x1.522eb0p-6, -0x1.06e6a0p-5,  0x1.5df882p-2,  0x1.ac0500p-2,
    -0x1.a5d4eep-5, -0x1.f14700p-5, -0x1.52a926p-5,  0x1.3996c6p-5,
    -0x1.7703a6p-4,  0x1.536c60p-5, -0x1.0e1452p-2,  0x1.14d898p-3,
     0x1.4a87aep-3,  0x1.a4a332p-4,  0x1.0874f2p-4,  0x1.988c8ap-7,
     0x1.ed40acp-7, -0x1.451370p-7, -0x1.3712eep-7, -0x1.5238bep-6,
    -0x1.39a81ep-6, -0x1.24cdc2p-6,  0x1.1395f2p-6, -0x1.806f46p-7,
     0x1.5bac28p-4, -0x1.2a9bccp-5, -0x1.142790p-5,  0x1.1c9a70p-4,
    -0x1.107552p-12, 0x1.3b1c7cp-6, -0x1.8b2704p-5,  0x1.f99058p-5,
    -0x1.3425b6p-1,  0x1.44ffe0p-3, -0x1.3ca69cp-4, -0x1.673c40p-9,
     0x1.33b7d6p-4, -0x1.beead2p-3,  0x1.89eaeap-4, -0x1.9bb0ccp-3,
     0x1.cae944p-4,  0x1.279ec8p-6, -0x1.025b94p-1,  0x1.281602p-3,
    -0x1.1f1bbap-2, -0x1.ab22f0p-7,  0x1.4c3c0ap-3, -0x1.4941fep-4,
     0x1.8c76cap-1,  0x1.1961a4p-3,  0x1.96f24ap-4,  0x1.09032ap+0,
     0x1.49c1f0p-7,  0x1.ce23c8p-8,  0x1.3e1b80p-2, -0x1.3713ecp-3,
    -0x1.dcc3c2p-2, -0x1.298d2ep-6, -0x1.2f0fb8p-2, -0x1.ff469cp-4,
    -0x1.8eaccap-6, -0x1.75fc40p-3, -0x1.eb3a88p-9, -0x1.6462fep-5,
    -0x1.29ccb6p-4,  0x1.e93656p-4, -0x1.752caep-4, -0x1.5c7c0ap-8,
     0x1.312034p-4, -0x1.320d26p-3,  0x1.954cc2p-4, -0x1.291290p-6,
    -0x1.a02496p-7, -0x1.d73d04p-6,  0x1.87c68cp-7,  0x1.0eed90p-9,
    -0x1.14558ep-8,  0x1.4f251ap-6, -0x1.2ed5d4p-6,  0x1.34416cp-6,
     0x1.4a90cap-5, -0x1.7f1aeap-9,  0x1.9f57c4p-6, -0x1.5ea666p-4,
    -0x1.ceff2ap-4, -0x1.4227fcp-5, -0x1.665380p-5, -0x1.c2637ap-6,
    -0x1.9335c4p-4,  0x1.08673cp-7, -0x1.59af92p-2,  0x1.1c29aap-4,
     0x1.28d294p-2, -0x1.2f0192p-4,  0x1.aced00p-5, -0x1.7c793ap-6,
     0x1.f53c78p-7, -0x1.13a0c8p-4,  0x1.5e0d52p-2,  0x1.6c25c0p-2,
    -0x1.d0be86p-3,  0x1.1cd7acp-4, -0x1.5962d4p-4,  0x1.a0bdb6p-5,
    -0x1.5c4f82p-4, -0x1.25f72ap-5, -0x1.fa679ep-4,  0x1.76da18p-7,
     0x1.5e5b80p-4,  0x1.4311c8p-5, -0x1.60bf3ep-6, -0x1.ab4020p-8,
     0x1.a22b78p-6,  0x1.00d600p-6,  0x1.c52ec2p-6,  0x1.37847ap-7,
    -0x1.5c0214p-6, -0x1.84ded4p-9,  0x1.05d9ccp-7, -0x1.7a663ep-6,
     0x1.4645e6p-10,-0x1.9ced36p-6,  0x1.4ec756p-5, -0x1.b9f0ccp-6,
     0x1.8c0732p-8, -0x1.312cf8p-6,  0x1.d4115ep-8, -0x1.ba3568p-6,
    -0x1.79f30cp-9, -0x1.05645cp-8, -0x1.6a7eaep-6,  0x1.b13fc6p-4,
     0x1.e09ddap-5, -0x1.68e244p-6,  0x1.dcfb82p-6, -0x1.0c4a56p-5,
    -0x1.0aeb30p-7, -0x1.0d87d6p-7, -0x1.6cd92ep-4, -0x1.4b3f0ap-3,
    -0x1.03d968p-3, -0x1.53945ep-5, -0x1.81ee44p-8,  0x1.00fbe2p-8,
    -0x1.bc11eap-6, -0x1.abc626p-4, -0x1.1ad42ap-1, -0x1.80e4bep+0,
    -0x1.3e753ep-2, -0x1.8cde2cp-6, -0x1.70162ap-5,  0x1.e42f62p-5,
     0x1.0dfe2cp-3,  0x1.873108p-4,  0x1.6d60eap-1,  0x1.d0cff2p+0,
     0x1.42532cp-2,  0x1.4bf87ep-4,  0x1.953d60p-6, -0x1.7fd800p-14,
    -0x1.000b86p-4, -0x1.7cc38ep-7, -0x1.f6e000p-4, -0x1.8715ccp-4,
     0x1.cc230ep-6, -0x1.0443c8p-4,  0x1.a32e52p-5, -0x1.725c2ap-5,
    -0x1.5b6460p-8,  0x1.20bf0ep-5, -0x1.3d03eep-5,  0x1.5c0696p-6,
     0x1.e26e10p-7, -0x1.7963dcp-5,  0x1.e8ca30p-6, -0x1.99fb36p-6,
     0x1.5373a2p-4, -0x1.5984c4p-5,  0x1.aba5b2p-10, 0x1.898c6ep-7,
    -0x1.6bd126p-5,  0x1.875020p-7,  0x1.066c74p-7, -0x1.f3f178p-6,
     0x1.a370dep-6,  0x1.02a82cp-4,  0x1.f20982p-4,  0x1.a685e6p-3,
     0x1.3a4662p-5,  0x1.6a4292p-6, -0x1.b32944p-5,  0x1.bea360p-5,
    -0x1.47280cp-3, -0x1.c9e89ep-8, -0x1.3dd0d2p-4,  0x1.5d219cp-4,
    -0x1.4a6c34p-6,  0x1.0bc0f8p-8, -0x1.4f0a72p-6,  0x1.8f78a4p-4,
    -0x1.f11244p-8,  0x1.186d7cp-7, -0x1.232afcp-4, -0x1.a3a7a6p-6,
    -0x1.493386p-5, -0x1.af4beap-4,  0x1.75ab2ap-8, -0x1.0130eep-3,
     0x1.4a9c3ap-6, -0x1.0916a2p-5,  0x1.f4fa84p-7,  0x1.a8297ep-6,
    -0x1.3660a6p-5,  0x1.2ffe4ep-5, -0x1.f4e7dep-7, -0x1.49dc84p-6,
    -0x1.29adeep-6,  0x1.4ea3dcp-6, -0x1.ded176p-6,  0x1.520278p-5,
     0x1.87eb78p-9, -0x1.a4f1c0p-6,  0x1.8c11b8p-5, -0x1.00a862p-5,
     0x1.4e0ed2p-5,  0x1.1220eep-5,  0x1.55032cp-4,  0x1.620700p-10,
     0x1.c80d56p-6,  0x1.f77074p-6, -0x1.3e9c92p-6, -0x1.243904p-6,
     0x1.45e870p-5,  0x1.646adep-5,  0x1.b7798ep-4,  0x1.7f938cp-2,
    -0x1.79b920p-4,  0x1.ce950ap-4, -0x1.c958bcp-7,  0x1.2178f4p-5,
    -0x1.338f38p-4,  0x1.e3d91ep-10,-0x1.f13c96p-2, -0x1.87ae74p-3,
    -0x1.50a06ap-3,  0x1.39fc44p-6,  0x1.e31436p-6, -0x1.a82b16p-10,
    -0x1.ac4a5ep-6,  0x1.a94b2cp-7,  0x1.756de0p-9,  0x1.d61ee2p-5,
    -0x1.232ecep-6,  0x1.9cfdb4p-6,  0x1.edc3d6p-6,  0x1.5bbcbep-5,
     0x1.59ad04p-6, -0x1.a66aaep-7,  0x1.e0f3f8p-7,  0x1.f64974p-8,
    -0x1.08def4p-5, -0x1.7fc24cp-7, -0x1.8438f4p-6, -0x1.2d0192p-6,
     0x1.a5ea94p-7, -0x1.14eb4ep-6,  0x1.55453cp-6, -0x1.fad14ep-7,
     0x1.450458p-5,  0x1.3c2842p-6,  0x1.01b6fcp-6,  0x1.9348c6p-5,
    -0x1.67b132p-4, -0x1.81db64p-6, -0x1.e9c43ep-5,  0x1.47c802p-9,
     0x1.081800p-5, -0x1.c33806p-7, -0x1.fa08d0p-5, -0x1.b5b166p-5,
     0x1.dfcc54p-3, -0x1.a0c87ep-5,  0x1.226726p-1,  0x1.611c94p-3,
     0x1.0eb424p-3, -0x1.8cbe12p-5, -0x1.6eefc2p-4, -0x1.071a4ap-4,
     0x1.c0a7b8p-6, -0x1.149926p-5, -0x1.1ffd02p-3, -0x1.3805d8p-2,
     0x1.43975ep-4, -0x1.1e0622p-4, -0x1.4ebe20p-5, -0x1.b2925cp-6,
    -0x1.6fac3ap-4, -0x1.e11118p-5, -0x1.852b6cp-4, -0x1.5d77dap-6,
    -0x1.cfc2a4p-6,  0x1.30318ap-5, -0x1.22cbaep-8,  0x1.a1c184p-5,
     0x1.9cdcf2p-7, -0x1.b4de24p-5,  0x1.7d8f1ep-5, -0x1.843e3cp-7,
     0x1.13f09cp-6,  0x1.00f370p-6, -0x1.9b40dcp-5,  0x1.1b2c52p-6,
    -0x1.95e550p-6,  0x1.4eecb8p-5, -0x1.6e72aap-6,  0x1.2a6cc2p-5,
    -0x1.f5d0eap-6,  0x1.000766p-8,  0x1.c95898p-6, -0x1.08fd82p-5,
     0x1.ef51aep-4,  0x1.fce694p-6, -0x1.ed8c68p-5,  0x1.7cee3ep-3,
     0x1.d1edd4p-4,  0x1.e990bcp-5,  0x1.e5fb02p-5,  0x1.5385bcp-5,
     0x1.82425ap-6,  0x1.86dd4cp-6,  0x1.1ec924p-2, -0x1.49ee9ap-4,
    -0x1.4a2d14p-1, -0x1.33632ap-4, -0x1.7afc40p-4,  0x1.372e26p-7,
    -0x1.ba20e2p-3, -0x1.58d17ep-6, -0x1.97af5ep-2,  0x1.a8b428p-4,
     0x1.093ba2p-2, -0x1.84007ap-4,  0x1.6a9192p-6,  0x1.f0f81ep-5,
    -0x1.a68accp-9,  0x1.68e04cp-5,  0x1.37b0c2p-6,  0x1.8b3ae4p-4,
     0x1.695860p-5,  0x1.93d24ap-6,  0x1.7f8da0p-6, -0x1.da55acp-6,
     0x1.178b44p-5,  0x1.4b48f8p-7, -0x1.5fcf44p-5,  0x1.b03e80p-5,
    -0x1.0602c8p-7,  0x1.534054p-8,  0x1.5a3ea8p-6, -0x1.14203ep-7,
     0x1.74d268p-7, -0x1.25fb0ep-2, -0x1.205e50p-5,  0x1.138a06p-2,
    -0x1.418966p-1,  0x1.c6dd32p-3, -0x1.003f8cp-2, -0x1.9d6d34p-2,
    -0x1.c85d76p-3, -0x1.1493fcp-11,-0x1.e15f56p-1, -0x1.256428p-1,
    -0x1.048f84p-1, -0x1.794b54p-3,  0x1.532400p-2, -0x1.aef086p-2,
    -0x1.01c6b6p-2, -0x1.19134ep-1,  0x1.118080p-1,  0x1.2445a0p+2,
     0x1.17fe54p+0, -0x1.3bbe7ep+0, -0x1.24d704p-4,  0x1.fdc9dcp-3,
    -0x1.806492p-1, -0x1.6f5bf0p+0,  0x1.25c01cp+0,  0x1.343b66p+2,
     0x1.5068f4p+0, -0x1.34746ap-1, -0x1.3f9d92p-1, -0x1.82f288p-2,
     0x1.dd86fap-3,  0x1.5bb574p-3, -0x1.128c68p-1, -0x1.81a5e4p-1,
    -0x1.72b97ep+0, -0x1.3ecd4cp-2, -0x1.0d6aaap-3, -0x1.3f27a6p-1,
    -0x1.378ce8p-1,  0x1.bd1f46p-2, -0x1.8096e6p-1,  0x1.1a3ac8p-4,
     0x1.bf147ep-4, -0x1.47a3dep-2,  0x1.40bc24p-2, -0x1.22d272p-3,
    -0x1.ef3df4p-7, -0x1.95ffdap-8,  0x1.26b1bep-7,  0x1.b616a2p-12,
     0x1.5e099ap-9,  0x1.f17562p-10,-0x1.68ba62p-7, -0x1.f22f42p-9,
     0x1.df8e50p-6, -0x1.3b18a2p-5,  0x1.3e8b5ep-8, -0x1.29a6b2p-7,
    -0x1.f15a5cp-6,  0x1.78bf72p-8, -0x1.721c0ep-9,  0x1.8a4abap-6,
     0x1.b94694p-5,  0x1.68060cp-5, -0x1.b1770ep-6,  0x1.c9eff6p-4,
     0x1.da97b2p-4, -0x1.771bdep-5,  0x1.03f8dap-9, -0x1.c4ef20p-5,
    -0x1.90890ep-4, -0x1.4646eap-5,  0x1.7b5296p-4,  0x1.a47e6ap-4,
    -0x1.b47decp-5,  0x1.76ae9cp-5, -0x1.6f5b44p-14, 0x1.581a86p-5,
    -0x1.01568ep-5, -0x1.4322e8p-5, -0x1.2c264ap-4, -0x1.3354a6p-5,
    -0x1.7d82f4p-7, -0x1.e9f2fep-8, -0x1.1a614cp-5,  0x1.408b4ep-7,
    -0x1.5d24b2p-10, 0x1.a06feep-10, 0x1.4d7d52p-7, -0x1.a6faa6p-10,
    -0x1.9cc806p-8, -0x1.7753a8p-7,  0x1.985ef0p-8, -0x1.b7a1d0p-6,
     0x1.914846p-9,  0x1.0f6152p-8, -0x1.05bec6p-6, -0x1.205018p-7,
     0x1.276ac0p-8,  0x1.2080a8p-10,-0x1.d60812p-8,  0x1.5fdf22p-6,
     0x1.716c12p-7, -0x1.a19f9cp-8,  0x1.e6b5aep-5, -0x1.3895d6p-5,
     0x1.77c450p-7,  0x1.01afa0p-6, -0x1.078414p-6,  0x1.273996p-6,
     0x1.8209aep-8,  0x1.9fe85ap-8, -0x1.94a9d0p-6, -0x1.526e96p-4,
    -0x1.f0ec26p-6,  0x1.3623dcp-8, -0x1.3142aap-7, -0x1.afc3c0p-6,
    -0x1.ad85ccp-11, 0x1.7a10d2p-4,  0x1.48a172p-2,  0x1.21a60ep+0,
     0x1.af1924p-3,  0x1.dfa466p-5,  0x1.3d52d6p-5, -0x1.c6e158p-8,
    -0x1.4fd330p-4, -0x1.47494ap-4, -0x1.90c880p-2, -0x1.206b62p+0,
    -0x1.536b5ep-3, -0x1.201cd2p-4, -0x1.199e02p-5, -0x1.41d7dap-12,
     0x1.d5eaa4p-6,  0x1.b11374p-10, 0x1.34b0a4p-4,  0x1.34a7aap-4,
    -0x1.05e97cp-6,  0x1.ea722cp-6, -0x1.ab8db2p-6,  0x1.a62e26p-7,
    -0x1.b600b4p-7,  0x1.54a708p-6, -0x1.a8d2dep-6,  0x1.faaab8p-6,
    -0x1.db93a8p-7, -0x1.63ce4cp-8,  0x1.108194p-14,-0x1.12e898p-14,
     0x1.551c50p-7,  0x1.098782p-5, -0x1.17bb54p-10,-0x1.e63b2ep-12,
    -0x1.519f86p-5, -0x1.e93f44p-6, -0x1.2f52b0p-6, -0x1.534ff2p-5,
     0x1.09b23cp-7,  0x1.ef0066p-5, -0x1.3ed186p-5,  0x1.d55ab8p-3,
     0x1.8b8ccep-4, -0x1.0d1450p-3, -0x1.f78bacp-6, -0x1.31b2f0p-7,
    -0x1.5c5ad2p-6, -0x1.431284p-7,  0x1.17124ep-4,  0x1.8a45b0p-3,
    -0x1.dd35a4p-4, -0x1.44ba7ep-5, -0x1.661e4cp-5, -0x1.fcf76ep-7,
    -0x1.38b950p-6, -0x1.05a074p-10,-0x1.64e6b6p-4, -0x1.030a68p-5,
     0x1.78bf0cp-7, -0x1.c3459ap-9,  0x1.3b5048p-6,  0x1.03bfccp-7,
     0x1.22c940p-8,  0x1.cf2428p-9, -0x1.60b1e8p-9,  0x1.ecec6cp-7,
    -0x1.61dae4p-7, -0x1.15098ep-11, 0x1.a85556p-11,-0x1.666004p-7,
    -0x1.46a5a2p-5,  0x1.b8e43cp-6, -0x1.1d5e50p-6,  0x1.d63b76p-11,
     0x1.2f421ep-8, -0x1.1c5712p-4,  0x1.dba204p-7, -0x1.505eb0p-5,
    -0x1.26b6f4p-11,-0x1.197812p-5, -0x1.1a37f0p-3, -0x1.99007ep-3,
     0x1.5e8e4cp-9,  0x1.a78542p-5, -0x1.3fede6p-5,  0x1.4efcd0p-5,
    -0x1.ecda4ep-12,-0x1.f0d17ep-6,  0x1.1e641ep-2,  0x1.c5c0aap-2,
    -0x1.729312p-4, -0x1.384288p-6, -0x1.550970p-8, -0x1.1776c8p-4,
    -0x1.585894p-5, -0x1.ec2538p-8, -0x1.3d271ap-3,  0x1.70f280p-5,
     0x1.c05bc2p-5,  0x1.0f0ab4p-9,  0x1.94236ep-7, -0x1.8ca818p-6,
    -0x1.1e0e7ep-8,  0x1.2d06f4p-7, -0x1.1a25c2p-7, -0x1.330ae2p-8,
     0x1.b20236p-7,  0x1.0b8824p-7,  0x1.01e5b2p-6,  0x1.65e46cp-5,
     0x1.a5cd56p-8, -0x1.d357f2p-6,  0x1.155d9cp-5, -0x1.5916c4p-7,
    -0x1.94b4b2p-7,  0x1.31e700p-7, -0x1.58ae94p-5,  0x1.742d40p-7,
     0x1.0c500ap-6, -0x1.a55f7cp-8, -0x1.55baeap-5,  0x1.ab3608p-6,
    -0x1.da8634p-6, -0x1.a326d4p-7,  0x1.2adc14p-8, -0x1.49248cp-7,
    -0x1.1780cep-4,  0x1.6a888ep-9,  0x1.7d4e2cp-6, -0x1.3c09e8p-3,
    -0x1.9bdbe6p-4, -0x1.43d828p-3, -0x1.ff2b0ep-7, -0x1.a4db4cp-3,
    -0x1.23bd8ap-3,  0x1.203a50p-4, -0x1.b3e306p-3,  0x1.2372acp-1,
     0x1.134f28p-3,  0x1.eefd84p-3,  0x1.41bd10p-8,  0x1.b574d0p-3,
     0x1.c525cep-7,  0x1.7f2c82p-4, -0x1.856890p-3,  0x1.76b9bep-3,
    -0x1.b2cc82p-3,  0x1.c4f274p-6, -0x1.25b59ep-5,  0x1.593b4ap-4,
     0x1.ec216ep-5, -0x1.69c658p-8,  0x1.0d3f28p-4, -0x1.f6d28ep-5,
     0x1.896ab2p-6, -0x1.004284p-3,  0x1.88e936p-5, -0x1.7c4e7ap-3,
     0x1.c4f34cp-6, -0x1.9d0d3ap-6,  0x1.1fc566p-6, -0x1.ef408cp-7,
     0x1.f7ff9ap-9, -0x1.542a14p-7, -0x1.3ae110p-7,  0x1.e43b14p-6,
    -0x1.16de92p-6,  0x1.df8baep-6, -0x1.8f5442p-6, -0x1.9bde5cp-7,
     0x1.606350p-8, -0x1.14e32ep-5,  0x1.074b6ep-7, -0x1.1ab7e4p-5,
    -0x1.acf2b4p-5, -0x1.1036b8p-5, -0x1.5fc7f6p-6,  0x1.cce0f4p-5,
     0x1.02f284p-5,  0x1.22c2f8p-6, -0x1.6bc2e8p-8, -0x1.9535c6p-9,
     0x1.2ec378p-7, -0x1.12e696p-4,  0x1.81feb8p-8,  0x1.7169c4p-2,
    -0x1.e13a96p-4, -0x1.1fd618p-5, -0x1.69c082p-5, -0x1.743014p-7,
    -0x1.2ad7b8p-4, -0x1.2cf590p-4, -0x1.0f9f60p-3,  0x1.9f2586p-2,
     0x1.89087ep-7, -0x1.f86734p-5, -0x1.3cde4cp-7, -0x1.d0cd44p-7,
    -0x1.3839d6p-9,  0x1.39dc26p-5,  0x1.20a6d6p-5,  0x1.af8b58p-7,
    -0x1.f8209cp-6, -0x1.8291b6p-5, -0x1.621568p-7, -0x1.c0fa2ap-5,
     0x1.9e0bfap-8, -0x1.dab7b6p-6,  0x1.3ff4eap-7, -0x1.27dd86p-6,
     0x1.a88dbcp-9,  0x1.d836ccp-6, -0x1.8414eep-7,  0x1.6c3588p-11,
    -0x1.6322c8p-4, -0x1.33868ap-4, -0x1.63333ep-4,  0x1.05c7aep-5,
    -0x1.19e250p-4,  0x1.7dd578p-3, -0x1.7746c0p-7,  0x1.7f203ep-5,
    -0x1.557728p-1, -0x1.067652p-7, -0x1.84dbc0p-4,  0x1.97dd92p-2,
    -0x1.cd241ep-3, -0x1.4a664ap-4, -0x1.bf75c4p-3, -0x1.723cfap-4,
     0x1.b2f958p+0,  0x1.84a37ap-2,  0x1.f4386cp-3, -0x1.cda848p-2,
    -0x1.02919ep-4,  0x1.78d836p-1,  0x1.a0aae6p-2, -0x1.88cda0p-2,
     0x1.2a33dep-1, -0x1.20fc6ep-9, -0x1.c25194p-3, -0x1.429090p+0,
    -0x1.604b0cp-2,  0x1.0c3072p-1,  0x1.5dda7cp-2, -0x1.41f232p-3,
    -0x1.520236p+0,  0x1.2cfed0p-5, -0x1.e0d254p-4,  0x1.c14128p-3,
    -0x1.ee3170p-4,  0x1.3039c6p-3, -0x1.bea318p-4,  0x1.afaf9ep-4,
     0x1.796faap-3, -0x1.3df02cp-5, -0x1.fdb0d0p-5,  0x1.1809c2p-8,
     0x1.6688f4p-5,  0x1.00a010p-7, -0x1.9c95eep-5,  0x1.4b3730p-3,
    -0x1.2bccd4p+4, -0x1.2f5da2p+4, -0x1.1e9a68p+4, -0x1.171708p+4,
    -0x1.13ad90p+4, -0x1.220b24p+4, -0x1.221042p+4, -0x1.0e7ee4p+4,
    -0x1.2f42ecp+4, -0x1.1b20e0p+4, -0x1.0f54c0p+4, -0x1.28f8f0p+4,
    -0x1.16c988p+4, -0x1.221d18p+4, -0x1.2068d8p+4, -0x1.30833ep+4,
     0x1.1de99ap-4, -0x1.d93030p+0,  0x1.e24aecp-1,  0x1.9fe9bcp-6,
     0x1.0ee41ep+0, -0x1.6429e8p-7,  0x1.4ad0f8p+0, -0x1.8467cep+0,
     0x1.1746cap+0, -0x1.718930p-2, -0x1.0fbd20p-7,  0x1.80ee3cp-1,
    -0x1.c1ff70p-5, -0x1.79a926p-3,  0x1.e82e62p-2, -0x1.72a8f0p+1,
};

ALIGNED_16(static const float scale_weights_8x6x32[49*64]) = {
     0x1.087b56p+1,  0x1.3f9beap+0,  0x1.9bbdd0p+0,  0x1.b9d130p+0,
     0x1.a3d68ap+0,  0x1.74fa24p+0,  0x1.1e5a04p+0,  0x1.667cd0p+0,
     0x1.28b404p-1,  0x1.2bdc3ap-2,  0x1.d0c906p-3,  0x1.47823ap-5,
    -0x1.73c84ep-1, -0x1.b4deb8p+0, -0x1.87055ep+0, -0x1.76218cp-2,
    -0x1.9b894ep+1, -0x1.371186p+1, -0x1.e7c4a6p-2,  0x1.0f589ep+0,
     0x1.7d516ep-1, -0x1.a88ba4p+0, -0x1.278c62p+1, -0x1.ec9df8p+0,
    -0x1.3ad17ap+1, -0x1.ae1796p-1,  0x1.111380p+1,  0x1.f99b74p-2,
    -0x1.902ee0p+0, -0x1.20addap+1, -0x1.e2d4a2p+0, -0x1.09bdacp-2,
     0x1.559a02p+0,  0x1.082a48p-2, -0x1.a60526p-3, -0x1.4975a0p-1,
    -0x1.3856c6p+0, -0x1.51860ap+0, -0x1.48d2dap-1,  0x1.a20554p-3,
     0x1.30aed0p+1,  0x1.937a72p+0,  0x1.4a5ca4p+0,  0x1.d8f906p-1,
     0x1.15c418p-1,  0x1.2d8fd4p-3,  0x1.40f988p-1,  0x1.4d31a0p+0,
     0x1.0894a0p+1,  0x1.472772p+0,  0x1.92cec4p+0,  0x1.c6f0a4p+0,
     0x1.ac9d0ap+0,  0x1.6d121cp+0,  0x1.2d824ep+0,  0x1.695992p+0,
     0x1.e31c22p-1,  0x1.802412p-2,  0x1.ee63c4p-3, -0x1.01e42cp-6,
    -0x1.7461d6p-1, -0x1.bf9dd2p+0, -0x1.7e30f0p+0, -0x1.95b7bap-2,
    -0x1.b5e228p+1, -0x1.4ae678p+1, -0x1.66970ap-2,  0x1.0e0facp+0,
     0x1.8af862p-2, -0x1.32aca6p+0, -0x1.0caa2ap+1, -0x1.94bd38p+0,
    -0x1.4d9fe8p+1, -0x1.4b1eeap-1,  0x1.9631a2p+0,  0x1.2cf69cp-1,
    -0x1.665b56p+0, -0x1.5bd208p+1, -0x1.eb0daep+0, -0x1.fcea20p-3,
     0x1.1f6576p+0,  0x1.276ed0p-2, -0x1.3b2668p-3, -0x1.6c3fd8p-1,
    -0x1.571ec0p+0, -0x1.5ce110p+0, -0x1.2c3ce8p-1,  0x1.229cc8p-5,
     0x1.3a840ap+1,  0x1.a25532p+0,  0x1.4c89c0p+0,  0x1.099acap+0,
     0x1.17ca3ap-1,  0x1.bb4002p-3,  0x1.3d581ep-1,  0x1.4c66b4p+0,
     0x1.0f0444p+1,  0x1.256a64p+0,  0x1.b2cffcp+0,  0x1.b6f714p+0,
     0x1.9a8ceep+0,  0x1.8cccaap+0,  0x1.189af4p+0,  0x1.546408p+0,
     0x1.65c0a8p-1,  0x1.100826p-1,  0x1.0ed2aap-3, -0x1.0da758p-5,
    -0x1.738d78p-2, -0x1.ec1f8ep+0, -0x1.3b7026p+0, -0x1.4315d6p-2,
    -0x1.d1bc24p+1, -0x1.27313ap+1, -0x1.91f92cp-1,  0x1.fa5d56p-2,
     0x1.fb1850p-4, -0x1.f2037ep+0, -0x1.115f7ep+1, -0x1.ed1690p+0,
    -0x1.1b024ap+1, -0x1.d8d5fcp-1,  0x1.f23296p+0,  0x1.ca464ep-1,
    -0x1.f9e800p-1, -0x1.103280p+1, -0x1.ad07c2p+0, -0x1.d07e44p-4,
     0x1.66cbe4p+0,  0x1.c6ab62p-2, -0x1.bcbcaep-8, -0x1.663a42p-1,
    -0x1.34b46cp+0, -0x1.586ff0p+0, -0x1.1e731ep-1,  0x1.9430acp-5,
     0x1.22b900p+1,  0x1.c5f88ap+0,  0x1.294198p+0,  0x1.ba4888p-1,
     0x1.b6c704p-1, -0x1.ed6e9cp-4,  0x1.bd10d4p-1,  0x1.61cb1ap+0,
     0x1.12538ep+1,  0x1.48d55ep+0,  0x1.ad8914p+0,  0x1.d75096p+0,
     0x1.b024d0p+0,  0x1.83d118p+0,  0x1.33ff9ap+0,  0x1.71fcfcp+0,
     0x1.7f87e2p-1,  0x1.687f14p-2,  0x1.4a827cp-3,  0x1.d37f68p-4,
    -0x1.575f7cp-1, -0x1.a73f3ep+0, -0x1.83d518p+0, -0x1.3c72fap-2,
    -0x1.9dcf46p+1, -0x1.3fcd3cp+1,  0x1.0a1346p-6,  0x1.3a4d7ap-2,
     0x1.cc389ep-2, -0x1.71d2aep+0, -0x1.165e16p+1, -0x1.b0f476p+0,
    -0x1.3242b4p+1, -0x1.9a1328p-1,  0x1.d582c6p+0, -0x1.520694p-4,
    -0x1.a16f48p-1, -0x1.2a3a04p+1, -0x1.c75bfap+0, -0x1.a8b4e4p-3,
     0x1.563b22p+0,  0x1.66f35ep-2, -0x1.c87ae4p-7, -0x1.65a8bep-1,
    -0x1.640792p+0, -0x1.36c9fap+0, -0x1.223a7ap-1,  0x1.ccb408p-3,
     0x1.3ec6b6p+1,  0x1.9a85acp+0,  0x1.604f32p+0,  0x1.0bf65cp+0,
     0x1.47122ap-1,  0x1.0eaad4p-2,  0x1.602d2ap-1,  0x1.6c9c18p+0,
     0x1.09c414p+1,  0x1.5b269cp+0,  0x1.aa8112p+0,  0x1.d3dedcp+0,
     0x1.ba4b4ep+0,  0x1.8a2e72p+0,  0x1.40c1eep+0,  0x1.7c9096p+0,
     0x1.5be0dcp-1,  0x1.26bf4ap-2,  0x1.3e3124p-4,  0x1.aafce6p-5,
    -0x1.20761ep-1, -0x1.ad442ep+0, -0x1.752b70p+0, -0x1.8e981cp-2,
    -0x1.93ca3cp+1, -0x1.21705ep+1,  0x1.753112p-4,  0x1.76de62p-1,
    -0x1.84c100p-3, -0x1.b94b24p+0, -0x1.23a72ep+1, -0x1.be9beap+0,
    -0x1.47d342p+1, -0x1.c2d4f8p-1,  0x1.52e688p+0,  0x1.317224p-1,
    -0x1.430354p-1, -0x1.151082p+1, -0x1.b29238p+0, -0x1.d925bcp-4,
     0x1.6825d4p+0,  0x1.de56b6p-2,  0x1.87caaap-4, -0x1.2e9ac8p-1,
    -0x1.574ff4p+0, -0x1.5c0b3ap+0, -0x1.238322p-1,  0x1.088558p-3,
     0x1.3d94eep+1,  0x1.aaf96ap+0,  0x1.5043b8p+0,  0x1.05e3d6p+0,
     0x1.52e458p-1,  0x1.e225ecp-3,  0x1.72bd38p-1,  0x1.66a000p+0,
     0x1.0a6a8ap+1,  0x1.41eea8p+0,  0x1.aac7fep+0,  0x1.c1b884p+0,
     0x1.b5d38ap+0,  0x1.781010p+0,  0x1.2f128ap+0,  0x1.6aff54p+0,
     0x1.cf6a28p-1,  0x1.ac5522p-2,  0x1.1f2446p-2,  0x1.ae0ec8p-5,
    -0x1.e18df4p-2, -0x1.bf8016p+0, -0x1.6b3208p+0, -0x1.7c069ep-2,
    -0x1.06b056p+2, -0x1.5fa48ep+1, -0x1.146526p+0,  0x1.bd9048p-2,
    -0x1.6d65e6p-5, -0x1.751a0ep+0, -0x1.1cfb34p+1, -0x1.c6ab1ep+0,
    -0x1.2bc68ap+1, -0x1.2af65ap-1,  0x1.c1bc4ep+0,  0x1.c288f2p-1,
    -0x1.3732a8p+0, -0x1.4ce84cp+1, -0x1.f09af4p+0, -0x1.d76292p-2,
     0x1.87747ap+0,  0x1.a8be08p-2,  0x1.7262d4p-3, -0x1.31e358p-1,
    -0x1.168076p+0, -0x1.20d5ecp+0, -0x1.f940cep-2,  0x1.40b3e2p-2,
     0x1.3e9740p+1,  0x1.9e393ap+0,  0x1.4b4f10p+0,  0x1.f50e96p-1,
     0x1.3f93e2p-1,  0x1.53d90ep-3,  0x1.6aba8cp-1,  0x1.6665e6p+0,
     0x1.12491ep+1,  0x1.3f2f76p+0,  0x1.aa6d5cp+0,  0x1.b9ff4cp+0,
     0x1.9fd928p+0,  0x1.7f1bbep+0,  0x1.2516eap+0,  0x1.6c1c0ep+0,
     0x1.60be70p-1,  0x1.6c4cfep-2,  0x1.e357b4p-4,  0x1.4ed57ap-5,
    -0x1.6c9312p-1, -0x1.cb3444p+0, -0x1.843308p+0, -0x1.ac7e16p-2,
    -0x1.8e5eb6p+1, -0x1.32957ep+1,  0x1.419102p-2,  0x1.7f26a6p-1,
     0x1.175b6ap-2, -0x1.83caf0p+0, -0x1.1accc0p+1, -0x1.b19056p+0,
    -0x1.49ef54p+1, -0x1.9e2398p-1,  0x1.664a0cp+0,  0x1.33e3ccp-2,
    -0x1.e3299ap-2, -0x1.2a6fbap+1, -0x1.bc9cc6p+0, -0x1.2c6590p-3,
     0x1.5df8fep+0,  0x1.4888e2p-2,  0x1.fbe890p-6, -0x1.29464ap-1,
    -0x1.6b26a4p+0, -0x1.49166cp+0, -0x1.26cfbep-1,  0x1.d8716cp-4,
     0x1.35720ep+1,  0x1.a28c80p+0,  0x1.497f06p+0,  0x1.e9faf4p-1,
     0x1.41aae4p-1,  0x1.785ee0p-3,  0x1.63fcd0p-1,  0x1.5cacb2p+0,
     0x1.136fdap+1,  0x1.3608c8p+0,  0x1.acc740p+0,  0x1.c101aep+0,
     0x1.ade5e0p+0,  0x1.82118ap+0,  0x1.230544p+0,  0x1.70f4fcp+0,
     0x1.62dcf4p-1,  0x1.3421e0p-2,  0x1.677272p-3, -0x1.c8724cp-7,
    -0x1.57fab4p-1, -0x1.a79216p+0, -0x1.8247e4p+0, -0x1.59c2c2p-2,
    -0x1.97c688p+1, -0x1.317a9ep+1, -0x1.7a5dd4p-4,  0x1.977c1ap-1,
     0x1.f7f6dcp-3, -0x1.8d5636p+0, -0x1.18ef52p+1, -0x1.ae88dep+0,
    -0x1.43b042p+1, -0x1.b09d66p-1,  0x1.c8f07ep+0,  0x1.29cf8ap-1,
    -0x1.dea35cp-1, -0x1.2e77d6p+1, -0x1.e0050ap+0, -0x1.eb9a0ep-3,
     0x1.4aa7d6p+0,  0x1.0794cap-2, -0x1.b6ba14p-4, -0x1.7a18b6p-1,
    -0x1.3d1498p+0, -0x1.359ba4p+0, -0x1.40c7c6p-1,  0x1.79df18p-3,
     0x1.3b2c30p+1,  0x1.99b332p+0,  0x1.598006p+0,  0x1.d8ce9cp-1,
     0x1.225e40p-1,  0x1.3e21e2p-3,  0x1.5b8eecp-1,  0x1.515024p+0,
     0x1.13a4d4p+1,  0x1.4807dap+0,  0x1.a98684p+0,  0x1.d568e0p+0,
     0x1.b5d960p+0,  0x1.8b2550p+0,  0x1.2e3d66p+0,  0x1.6e1028p+0,
     0x1.4bdbb4p-1,  0x1.cb3906p-2,  0x1.e8ef28p-3,  0x1.140012p-3,
    -0x1.1087ecp-1, -0x1.b5766ap+0, -0x1.6dfa0ep+0, -0x1.b6b460p-2,
    -0x1.bd1672p+1, -0x1.49fd3cp+1, -0x1.130a2ep+0,  0x1.b22e9ep-1,
     0x1.86c200p-3, -0x1.a8b0bep+0, -0x1.10b24cp+1, -0x1.bce15ap+0,
    -0x1.3b91fep+1, -0x1.5d324cp-1,  0x1.eb8230p+0,  0x1.002558p+0,
    -0x1.d114dep+0, -0x1.3a3ddap+1, -0x1.d95734p+0,  0x1.1b9e6ap-5,
     0x1.7db53ap+0,  0x1.b6fadcp-2,  0x1.8bdc7ep-4, -0x1.22b108p-1,
    -0x1.16c5e4p+0, -0x1.31d32cp+0, -0x1.2e1386p-1,  0x1.0a15f4p-4,
     0x1.3ac8f0p+1,  0x1.b3f53ep+0,  0x1.4ff9c0p+0,  0x1.0859a2p+0,
     0x1.541462p-1,  0x1.7b03cap-3,  0x1.8f8866p-1,  0x1.6378b8p+0,
     0x1.1a3494p+1,  0x1.4ff34cp+0,  0x1.c14346p+0,  0x1.dab858p+0,
     0x1.c756cep+0,  0x1.83b548p+0,  0x1.3a984cp+0,  0x1.72f1cep+0,
     0x1.8a588ap-1,  0x1.9955e4p-2,  0x1.c6ab78p-3,  0x1.230426p-4,
    -0x1.0765acp-1, -0x1.c2e7aep+0, -0x1.667a3cp+0, -0x1.ec9416p-2,
    -0x1.d3a23cp+1, -0x1.302560p+1, -0x1.8ae8bcp-1,  0x1.7636a4p-2,
    -0x1.6b6a28p-2, -0x1.e8a106p+0, -0x1.180d10p+1, -0x1.b17050p+0,
    -0x1.459976p+1, -0x1.6a4b06p-1,  0x1.af2000p+0,  0x1.b993dep-1,
    -0x1.0959dap+0, -0x1.0c5b9cp+1, -0x1.b0a246p+0,  0x1.8c1952p-4,
     0x1.9b8e52p+0,  0x1.1c131cp-1,  0x1.a7423cp-3, -0x1.d88246p-2,
    -0x1.2674e4p+0, -0x1.333106p+0, -0x1.0c32aep-1,  0x1.71d6f6p-3,
     0x1.3f0a20p+1,  0x1.a9769ap+0,  0x1.5166bep+0,  0x1.eedb78p-1,
     0x1.6da17ap-1,  0x1.6f95dep-3,  0x1.93ed20p-1,  0x1.6c4088p+0,
     0x1.05463ap+1,  0x1.4adea2p+0,  0x1.9ab8e2p+0,  0x1.d2e5e6p+0,
     0x1.b1beb8p+0,  0x1.8cab32p+0,  0x1.301edcp+0,  0x1.705e70p+0,
     0x1.817a20p-1,  0x1.8ec28ap-2,  0x1.170a62p-4,  0x1.75e598p-4,
    -0x1.76ff3ep-1, -0x1.d60620p+0, -0x1.63f134p+0, -0x1.a7fa64p-2,
    -0x1.a35406p+1, -0x1.38102ap+1, -0x1.9ce980p-1,  0x1.8190f8p-2,
     0x1.491908p-2, -0x1.b1f6b4p+0, -0x1.119fc2p+1, -0x1.c4f788p+0,
    -0x1.2178f2p+1, -0x1.5e216cp-1,  0x1.20d884p+1,  0x1.03a5d6p+0,
    -0x1.34e208p+0, -0x1.1e5446p+1, -0x1.deb8d2p+0, -0x1.a9c8a8p-3,
     0x1.58d30ep+0,  0x1.ba9c14p-2, -0x1.a79928p-8, -0x1.1f55e2p-1,
    -0x1.11f94ep+0, -0x1.250754p+0, -0x1.df4caep-2,  0x1.78eba0p-3,
     0x1.3874dap+1,  0x1.a86900p+0,  0x1.40446cp+0,  0x1.00fe22p+0,
     0x1.327f58p-1,  0x1.2a6104p-3,  0x1.87bff6p-1,  0x1.67c414p+0,
     0x1.077f0cp+1,  0x1.4546eep+0,  0x1.a8d0a8p+0,  0x1.c7ef8ep+0,
     0x1.b91672p+0,  0x1.7596eap+0,  0x1.34f2b0p+0,  0x1.63207ep+0,
     0x1.c02f74p-1,  0x1.5279a2p-2,  0x1.13a97ep-2,  0x1.3a7a9ep-4,
    -0x1.dff7d6p-2, -0x1.d32d04p+0, -0x1.6fdc30p+0, -0x1.0a617cp-1,
    -0x1.e245dep+1, -0x1.57a97cp+1, -0x1.d2474cp-1,  0x1.011548p-2,
    -0x1.74b128p-5, -0x1.7ecfa4p+0, -0x1.1e4106p+1, -0x1.bc9e4cp+0,
    -0x1.4a4084p+1, -0x1.f1feecp-2,  0x1.bfcac2p+0,  0x1.73dc60p-1,
    -0x1.1bc9aep+0, -0x1.2c2816p+1, -0x1.da3ffep+0, -0x1.552f58p-5,
     0x1.806970p+0,  0x1.86700ep-2,  0x1.bf1f14p-4, -0x1.dffe6cp-2,
    -0x1.2a6d62p+0, -0x1.35984ep+0, -0x1.31aba4p-1,  0x1.99600cp-3,
     0x1.3700b4p+1,  0x1.a39506p+0,  0x1.44236cp+0,  0x1.edaec4p-1,
     0x1.4bb5d2p-1,  0x1.f60b92p-4,  0x1.7fdd1ap-1,  0x1.586f48p+0,
     0x1.11a88ep+1,  0x1.2a0d48p+0,  0x1.be5952p+0,  0x1.bbc442p+0,
     0x1.a3b9fcp+0,  0x1.93e522p+0,  0x1.194c18p+0,  0x1.625254p+0,
     0x1.78f10ap-1,  0x1.fdcd54p-2,  0x1.78206cp-3, -0x1.60d57ep-5,
    -0x1.a0ace2p-2, -0x1.d6ed56p+0, -0x1.4c01bcp+0, -0x1.462f5cp-2,
    -0x1.cd6666p+1, -0x1.2c9878p+1, -0x1.9e4f7ep-1,  0x1.61662ep-1,
     0x1.22a93cp-4, -0x1.d5231cp+0, -0x1.141eaap+1, -0x1.e105d2p+0,
    -0x1.17d814p+1, -0x1.bc5706p-1,  0x1.f8f2f8p+0,  0x1.f8cd60p-1,
    -0x1.12af38p+0, -0x1.10ae64p+1, -0x1.b0003cp+0, -0x1.9c393cp-4,
     0x1.6e41c8p+0,  0x1.b454e8p-2,  0x1.dc4250p-5, -0x1.6c4898p-1,
    -0x1.2d9122p+0, -0x1.41cff8p+0, -0x1.2cfa88p-1,  0x1.45e994p-3,
     0x1.2afdc4p+1,  0x1.bb8266p+0,  0x1.3aa978p+0,  0x1.c4830cp-1,
     0x1.a1bd88p-1, -0x1.eb0ed8p-6,  0x1.adb048p-1,  0x1.6a3a9cp+0,
     0x1.131108p+1,  0x1.300368p+0,  0x1.b07dbep+0,  0x1.b9056ap+0,
     0x1.aca834p+0,  0x1.8387eap+0,  0x1.1b301cp+0,  0x1.71c4aep+0,
     0x1.6550fap-1,  0x1.2b89acp-2,  0x1.e8140ep-3, -0x1.2b88c2p-5,
    -0x1.5e4228p-1, -0x1.a30740p+0, -0x1.7f90d8p+0, -0x1.6a2086p-2,
    -0x1.9e1556p+1, -0x1.343f84p+1, -0x1.371990p-2,  0x1.874f5cp-1,
     0x1.1e09aap-2, -0x1.99971ap+0, -0x1.1b035ap+1, -0x1.bd3dcap+0,
    -0x1.40c6c8p+1, -0x1.aba4fep-1,  0x1.ee629ep+0,  0x1.696372p-1,
    -0x1.148cb8p+0, -0x1.2399b8p+1, -0x1.ea947ap+0, -0x1.9259c0p-3,
     0x1.4c07acp+0,  0x1.cbec6ap-3, -0x1.38851ap-3, -0x1.8928f0p-1,
    -0x1.2fb408p+0, -0x1.2eccd8p+0, -0x1.52b4a4p-1,  0x1.d48b20p-3,
     0x1.39e5d8p+1,  0x1.9a09acp+0,  0x1.5b8cdep+0,  0x1.d6b9dep-1,
     0x1.0b2d98p-1,  0x1.39f204p-3,  0x1.58472ap-1,  0x1.4bc38ap+0,
     0x1.03ea4ap+1,  0x1.3a7e12p+0,  0x1.998716p+0,  0x1.bd643ap+0,
     0x1.a3f062p+0,  0x1.7b3920p+0,  0x1.2219b8p+0,  0x1.58921ap+0,
     0x1.58713cp-1,  0x1.3014cep-2, -0x1.39d3b2p-7, -0x1.389c6ep-3,
    -0x1.7e235ap-1, -0x1.d41d1cp+0, -0x1.83eaf6p+0, -0x1.82e192p-2,
    -0x1.b3d0dcp+1, -0x1.439d72p+1, -0x1.046e46p-1,  0x1.00d72ep+0,
     0x1.518a66p-3, -0x1.8bf7f0p+0, -0x1.186820p+1, -0x1.b0c5b8p+0,
    -0x1.204ba6p+1, -0x1.56a444p-1,  0x1.12245ap+1,  0x1.4d54d2p+0,
    -0x1.06ad2cp+0, -0x1.41b6eap+1, -0x1.e15512p+0, -0x1.405be6p-2,
     0x1.46b5f4p+0,  0x1.4d2978p-2, -0x1.6dcbb2p-4, -0x1.775ecap-1,
    -0x1.4d6992p+0, -0x1.3b8daep+0, -0x1.355384p-1,  0x1.ad6942p-4,
     0x1.332f08p+1,  0x1.9a3cbcp+0,  0x1.393612p+0,  0x1.e74f1ep-1,
     0x1.2d22d4p-1,  0x1.a85f0cp-4,  0x1.5f3baap-1,  0x1.51f59ep+0,
     0x1.0a54fep+1,  0x1.37ba32p+0,  0x1.ae3eb6p+0,  0x1.b62116p+0,
     0x1.a4a3c4p+0,  0x1.78864ap+0,  0x1.1c8812p+0,  0x1.630b6ap+0,
     0x1.1dac44p-1,  0x1.f230dap-3,  0x1.25ca02p-4,  0x1.74c91cp-5,
    -0x1.4296c4p-1, -0x1.c1f1b4p+0, -0x1.7f9824p+0, -0x1.99574ep-2,
    -0x1.818ff0p+1, -0x1.30ab54p+1,  0x1.92c0fcp-3,  0x1.0f61e6p-1,
    -0x1.604994p-3, -0x1.a48f2cp+0, -0x1.2150aap+1, -0x1.cc9d26p+0,
    -0x1.4860ecp+1, -0x1.899b1cp-1,  0x1.85abf4p+0,  0x1.7a0004p-1,
    -0x1.2a298cp-1, -0x1.12baa6p+1, -0x1.bab6c0p+0,  0x1.3d51cep-7,
     0x1.2a59c6p+0,  0x1.7842bep-3, -0x1.1eab0ep-3, -0x1.7d17b6p-1,
    -0x1.525f28p+0, -0x1.54a0d4p+0, -0x1.4a3c8ep-1,  0x1.5b12f0p-3,
     0x1.327d3ap+1,  0x1.968facp+0,  0x1.495bbep+0,  0x1.c29ba8p-1,
     0x1.314342p-1,  0x1.eede70p-4,  0x1.4d4feep-1,  0x1.4d79b2p+0,
     0x1.0e826ap+1,  0x1.42fc3cp+0,  0x1.afd38ep+0,  0x1.bfed56p+0,
     0x1.b0efecp+0,  0x1.8225ecp+0,  0x1.297a00p+0,  0x1.74e804p+0,
     0x1.525b4cp-1,  0x1.3b28fep-2,  0x1.ca08a2p-4,  0x1.73c78ep-6,
    -0x1.5cec0ap-1, -0x1.ca9690p+0, -0x1.81ca48p+0, -0x1.9c6918p-2,
    -0x1.960760p+1, -0x1.45294ap+1,  0x1.c75b8ap-5,  0x1.9d4e7cp-2,
     0x1.01aff8p-1, -0x1.7df98cp+0, -0x1.113b98p+1, -0x1.a371b2p+0,
    -0x1.466360p+1, -0x1.a3b3c2p-1,  0x1.b434e6p+0,  0x1.7ddbccp-2,
    -0x1.7daa4ap-1, -0x1.482af8p+1, -0x1.ce9b86p+0, -0x1.11b83ep-2,
     0x1.51ec3ap+0,  0x1.4fda26p-2, -0x1.ae929ep-7, -0x1.360784p-1,
    -0x1.578220p+0, -0x1.3dd7fap+0, -0x1.35e8a8p-1,  0x1.3181bcp-3,
     0x1.35b3b2p+1,  0x1.a2a24ap+0,  0x1.46f382p+0,  0x1.f40934p-1,
     0x1.4a66f6p-1,  0x1.78b572p-3,  0x1.55b752p-1,  0x1.5c34d8p+0,
     0x1.153cf0p+1,  0x1.411daap+0,  0x1.b8d3e0p+0,  0x1.cb8596p+0,
     0x1.b64382p+0,  0x1.82233ap+0,  0x1.2a6918p+0,  0x1.6bb318p+0,
     0x1.b72380p-1,  0x1.75d05ap-2,  0x1.2f375ep-2,  0x1.60c312p-4,
    -0x1.2a87b8p-1, -0x1.947a2ep+0, -0x1.5dec06p+0, -0x1.a2ee90p-3,
    -0x1.9a7e0ap+1, -0x1.38ba4ep+1, -0x1.e11d98p-3,  0x1.fb4764p-2,
     0x1.2f676cp-5, -0x1.ee52c6p+0, -0x1.2df26ep+1, -0x1.1ad706p+1,
    -0x1.82feccp+1, -0x1.e6046ep-1,  0x1.6c107cp+0,  0x1.69190cp-1,
    -0x1.d368d0p-1, -0x1.1be7c8p+1, -0x1.d0702ep+0, -0x1.7a038cp-4,
     0x1.88683ep+0,  0x1.d4d8e8p-2,  0x1.e00172p-4, -0x1.17a6dap-1,
    -0x1.3a6ea6p+0, -0x1.306b70p+0, -0x1.2444aep-1,  0x1.048cc6p-2,
     0x1.38f52ep+1,  0x1.a11bb2p+0,  0x1.4d25e6p+0,  0x1.ea811ap-1,
     0x1.4f3ba2p-1,  0x1.5b3416p-3,  0x1.6f4c0ap-1,  0x1.64bcf0p+0,
     0x1.127f30p+1,  0x1.449b08p+0,  0x1.b5b786p+0,  0x1.c6fbf4p+0,
     0x1.b7dbb4p+0,  0x1.816a1ap+0,  0x1.2ca960p+0,  0x1.75e77ep+0,
     0x1.626c9ep-1,  0x1.506fccp-2,  0x1.31424ap-3,  0x1.71718ap-7,
    -0x1.4fc8e0p-1, -0x1.be3d28p+0, -0x1.7e1a36p+0, -0x1.5e8c6cp-2,
    -0x1.91bda0p+1, -0x1.429792p+1,  0x1.13abc8p-4,  0x1.300684p-1,
     0x1.b7184ap-2, -0x1.76b2e0p+0, -0x1.10b2bcp+1, -0x1.9f17f8p+0,
    -0x1.46c8a2p+1, -0x1.968dd0p-1,  0x1.9fb452p+0,  0x1.9063b8p-2,
    -0x1.98f660p-1, -0x1.46be6ep+1, -0x1.cfbc0cp+0, -0x1.155af2p-2,
     0x1.50e394p+0,  0x1.3fe390p-2,  0x1.2658dap-7, -0x1.3555e6p-1,
    -0x1.45dc8ap+0, -0x1.3a4406p+0, -0x1.2a2ab2p-1,  0x1.605e9cp-3,
     0x1.3a6eb8p+1,  0x1.a239bap+0,  0x1.512138p+0,  0x1.fa8418p-1,
     0x1.52afdap-1,  0x1.9169e8p-3,  0x1.5d4d24p-1,  0x1.5fdda8p+0,
     0x1.116b1ap+1,  0x1.3b5d74p+0,  0x1.a9e434p+0,  0x1.bdff06p+0,
     0x1.a51984p+0,  0x1.8208bcp+0,  0x1.217b80p+0,  0x1.643d12p+0,
     0x1.447514p-1,  0x1.84030ep-2,  0x1.0f4894p-3, -0x1.4e1aacp-4,
    -0x1.6269bcp-1, -0x1.c8d896p+0, -0x1.8576c6p+0, -0x1.d929dap-2,
    -0x1.ca7944p+1, -0x1.50ade4p+1, -0x1.a76a98p-1,  0x1.4cd9f2p-1,
     0x1.98579cp-5, -0x1.983ad4p+0, -0x1.2022a8p+1, -0x1.cc3deep+0,
    -0x1.257eb8p+1, -0x1.936642p-1,  0x1.010056p+1,  0x1.34c8f8p+0,
    -0x1.061032p+0, -0x1.2398eap+1, -0x1.d02b72p+0, -0x1.27c3d6p-3,
     0x1.4ef9c6p+0,  0x1.62e87cp-2,  0x1.e07fc8p-8, -0x1.433f1ep-1,
    -0x1.431c5cp+0, -0x1.254498p+0, -0x1.29c9a2p-1,  0x1.e9f4c8p-3,
     0x1.36027ap+1,  0x1.a58312p+0,  0x1.3e5cfap+0,  0x1.e68f7ap-1,
     0x1.47a57ap-1,  0x1.1c4ac0p-3,  0x1.696ba0p-1,  0x1.5bf9eep+0,
     0x1.0ebd40p+1,  0x1.428edcp+0,  0x1.ae013ap+0,  0x1.c2a9ecp+0,
     0x1.acfe6ep+0,  0x1.821decp+0,  0x1.2e3530p+0,  0x1.62829cp+0,
     0x1.882a80p-1,  0x1.b791b0p-2,  0x1.68755ap-3,  0x1.789d84p-5,
    -0x1.00c7f2p-1, -0x1.b6fa26p+0, -0x1.59acc8p+0, -0x1.369916p-2,
    -0x1.bf7f8ap+1, -0x1.3fbec2p+1, -0x1.57dfa0p-1,  0x1.a90988p-1,
     0x1.46ea38p-6, -0x1.efb20ep+0, -0x1.241376p+1, -0x1.02ddeep+1,
    -0x1.37c804p+1, -0x1.dc4748p-1,  0x1.c95c0ep+0,  0x1.34b8fep+0,
    -0x1.bb1e3cp-1, -0x1.141a6ep+1, -0x1.d10e5ap+0, -0x1.38fe88p-3,
     0x1.60f336p+0,  0x1.b4237ap-2,  0x1.8ccc52p-5, -0x1.10eb3ap-1,
    -0x1.267dfep+0, -0x1.2ac0dap+0, -0x1.1085eap-1,  0x1.b82788p-3,
     0x1.34adcep+1,  0x1.b16a50p+0,  0x1.3eb058p+0,  0x1.fbf67ap-1,
     0x1.5a384ep-1,  0x1.95b7dap-4,  0x1.8ae2fap-1,  0x1.6225b2p+0,
     0x1.1171e0p+1,  0x1.4ed442p+0,  0x1.ae2f32p+0,  0x1.bfb744p+0,
     0x1.b02c1ep+0,  0x1.7873d0p+0,  0x1.2e7252p+0,  0x1.6eed16p+0,
     0x1.6e51d8p-1,  0x1.58f4e8p-2,  0x1.43b376p-3,  0x1.ff7ee4p-4,
    -0x1.4cc1fap-1, -0x1.bbfd6ap+0, -0x1.75622ap+0, -0x1.463098p-2,
    -0x1.896ca2p+1, -0x1.342940p+1,  0x1.87078cp-2,  0x1.8d7c96p-2,
     0x1.04db20p-2, -0x1.617c92p+0, -0x1.179d14p+1, -0x1.a22842p+0,
    -0x1.57dd28p+1, -0x1.5549b2p-1,  0x1.4eeb44p+0, -0x1.16dda4p-4,
    -0x1.bcb678p-2, -0x1.3ed5f6p+1, -0x1.c5106cp+0, -0x1.d4b5cap-3,
     0x1.625126p+0,  0x1.5cb9b6p-2, -0x1.3f43d8p-6, -0x1.0221e2p-1,
    -0x1.3d490cp+0, -0x1.43041ep+0, -0x1.ff8006p-2,  0x1.3e61c4p-3,
     0x1.3ea5e6p+1,  0x1.a1c8d2p+0,  0x1.55b2d4p+0,  0x1.dcc852p-1,
     0x1.54fd5cp-1,  0x1.61d886p-3,  0x1.76934ap-1,  0x1.5e5df0p+0,
     0x1.10ed5ep+1,  0x1.40cac4p+0,  0x1.aaf62cp+0,  0x1.c75856p+0,
     0x1.a61f5ep+0,  0x1.6fa8ecp+0,  0x1.237d1ap+0,  0x1.622e24p+0,
     0x1.6aa172p-1,  0x1.3053eap-2,  0x1.61ace4p-3, -0x1.b6c594p-7,
    -0x1.4c4e4cp-1, -0x1.9f34f4p+0, -0x1.83bdbep+0, -0x1.1316a6p-2,
    -0x1.a1f6a2p+1, -0x1.470aaap+1,  0x1.58d08ap-4,  0x1.1ace02p+0,
    -0x1.790924p-3, -0x1.8d4b7ap+0, -0x1.23ece2p+1, -0x1.c82228p+0,
    -0x1.59f084p+1, -0x1.aa5076p-1,  0x1.162f44p+0,  0x1.c4011ep-1,
    -0x1.881cc8p-1, -0x1.4c0576p+1, -0x1.d6f26ep+0, -0x1.3e8418p-2,
     0x1.5e568cp+0,  0x1.5fe90ap-2,  0x1.a35198p-7, -0x1.5609e0p-1,
    -0x1.498dcap+0, -0x1.4485bap+0, -0x1.343b12p-1,  0x1.43aed0p-3,
     0x1.31646cp+1,  0x1.9b7800p+0,  0x1.492824p+0,  0x1.ef11b6p-1,
     0x1.32fe22p-1,  0x1.c19a30p-3,  0x1.4f01eep-1,  0x1.5a3ae6p+0,
     0x1.0f9baap+1,  0x1.4851acp+0,  0x1.b50edap+0,  0x1.cc64c2p+0,
     0x1.ba380cp+0,  0x1.8c48fap+0,  0x1.28c49ep+0,  0x1.75fd94p+0,
     0x1.8618d8p-1,  0x1.0b76fap-2,  0x1.5676d6p-3,  0x1.c87b4ap-5,
    -0x1.90b43cp-1, -0x1.a153c0p+0, -0x1.5aac7ap+0, -0x1.e7e9a8p-3,
    -0x1.9df212p+1, -0x1.2cfb64p+1, -0x1.b4b02ap-1,  0x1.cac68ap-2,
     0x1.cafadap-1, -0x1.8ac554p+0, -0x1.105e08p+1, -0x1.cadd46p+0,
    -0x1.539ca6p+1, -0x1.7227b0p-1,  0x1.34324ep+1,  0x1.2a3b1ap-1,
    -0x1.722304p+0, -0x1.272650p+1, -0x1.e64b3cp+0, -0x1.97ad2ep-3,
     0x1.6468e2p+0,  0x1.8f5664p-2, -0x1.5fa0f8p-5, -0x1.28e198p-1,
    -0x1.39a2c0p+0, -0x1.538accp+0, -0x1.44589ep-1,  0x1.c6bca0p-3,
     0x1.41bcccp+1,  0x1.a23b2ap+0,  0x1.560054p+0,  0x1.dd6efep-1,
     0x1.3d6634p-1,  0x1.54d820p-3,  0x1.75b89ap-1,  0x1.541ab0p+0,
     0x1.13df18p+1,  0x1.355ad2p+0,  0x1.b87eb6p+0,  0x1.c482e6p+0,
     0x1.aceab2p+0,  0x1.8aa516p+0,  0x1.1ca5b6p+0,  0x1.73919cp+0,
     0x1.98d6dcp-1,  0x1.256e62p-2,  0x1.309ad6p-2,  0x1.90b3bep-5,
    -0x1.63fb00p-1, -0x1.971780p+0, -0x1.994b2cp+0, -0x1.70c67cp-2,
    -0x1.bc331cp+1, -0x1.526756p+1, -0x1.3f5b32p-1,  0x1.36f548p-1,
     0x1.202b26p-2, -0x1.838c30p+0, -0x1.1b98e0p+1, -0x1.c8f10ap+0,
    -0x1.228046p+1, -0x1.7e5efep-1,  0x1.123068p+1,  0x1.561576p-1,
    -0x1.46a470p+0, -0x1.2699eep+1, -0x1.e53214p+0, -0x1.4d1e04p-3,
     0x1.62029ep+0,  0x1.325c32p-2,  0x1.5f4b2ep-5, -0x1.5b6fbap-1,
    -0x1.3fb586p+0, -0x1.19de94p+0, -0x1.52d0acp-1,  0x1.39e4bap-2,
     0x1.36ce36p+1,  0x1.8b700ap+0,  0x1.58a762p+0,  0x1.ea39f2p-1,
     0x1.319b46p-1,  0x1.09b526p-2,  0x1.4c1202p-1,  0x1.6df98ep+0,
     0x1.0a83d8p+1,  0x1.3f7210p+0,  0x1.9fc744p+0,  0x1.bf3be8p+0,
     0x1.ab8ddcp+0,  0x1.7b3102p+0,  0x1.2440e6p+0,  0x1.67ac90p+0,
     0x1.598efap-1,  0x1.34e9bep-2,  0x1.1aaafep-3, -0x1.4dd4cep-3,
    -0x1.7551d2p-1, -0x1.b7e672p+0, -0x1.85584ep+0, -0x1.74f456p-2,
    -0x1.a9e2a6p+1, -0x1.494106p+1, -0x1.76cf0ep-3,  0x1.93f408p+0,
     0x1.f472f0p-2, -0x1.71cc56p+0, -0x1.153b54p+1, -0x1.b525d2p+0,
    -0x1.445f5ep+1, -0x1.b9daf4p-1,  0x1.d03950p+0,  0x1.4c8a9ep+0,
    -0x1.0cee00p+0, -0x1.3db644p+1, -0x1.e4c434p+0, -0x1.387faep-2,
     0x1.474e48p+0,  0x1.18952cp-2, -0x1.4fa02ep-4, -0x1.9a7588p-1,
    -0x1.585dbep+0, -0x1.3f4d92p+0, -0x1.4dc656p-1,  0x1.7d88d4p-3,
     0x1.34a9a8p+1,  0x1.9920a4p+0,  0x1.4956b2p+0,  0x1.dc574ap-1,
     0x1.19e168p-1,  0x1.14797cp-3,  0x1.4f6402p-1,  0x1.412f6ep+0,
     0x1.082d6ep+1,  0x1.5566d6p+0,  0x1.a00848p+0,  0x1.d891a4p+0,
     0x1.b5acbep+0,  0x1.781f94p+0,  0x1.3eecdcp+0,  0x1.5b200cp+0,
     0x1.6a9012p-1,  0x1.4c5a3ep-2,  0x1.a4f636p-5, -0x1.68d1ccp-3,
    -0x1.81a41ap-1, -0x1.b5b77cp+0, -0x1.8c4e5ep+0, -0x1.11fce8p-2,
    -0x1.af16fep+1, -0x1.44e13ap+1, -0x1.0e7f4cp-2,  0x1.12ed9cp+0,
     0x1.2c6a94p-2, -0x1.40ba6ap+0, -0x1.0b9fd8p+1, -0x1.9ebd66p+0,
    -0x1.262e4ep+1, -0x1.3ac49ep-1,  0x1.d17566p+0,  0x1.c78126p-1,
    -0x1.02ac4ap+0, -0x1.3f189ap+1, -0x1.cc128ap+0, -0x1.26c0e2p-2,
     0x1.48f71ep+0,  0x1.635b5ep-2, -0x1.162f7cp-7, -0x1.90e596p-1,
    -0x1.57c524p+0, -0x1.401e1ap+0, -0x1.2398f0p-1,  0x1.ad0c9ap-3,
     0x1.3b297cp+1,  0x1.9d83a8p+0,  0x1.4ced6ep+0,  0x1.01e2d6p+0,
     0x1.47a918p-1,  0x1.85dcd2p-3,  0x1.6d807cp-1,  0x1.51ca7ap+0,
     0x1.0770c6p+1,  0x1.375824p+0,  0x1.9ac3d0p+0,  0x1.c27ed0p+0,
     0x1.a1fb60p+0,  0x1.766bbap+0,  0x1.24a3f8p+0,  0x1.6777bap+0,
     0x1.69a2ccp-1,  0x1.6c0c64p-2, -0x1.226ee2p-5,  0x1.d0ae7cp-5,
    -0x1.377db2p-1, -0x1.ca7b74p+0, -0x1.72362cp+0, -0x1.b0c472p-2,
    -0x1.aba5b4p+1, -0x1.51fb18p+1, -0x1.1cfa94p-2,  0x1.4faaaep-3,
    -0x1.1b62c8p-2, -0x1.84e828p+0, -0x1.1c34fcp+1, -0x1.e43336p+0,
    -0x1.3132cap+1, -0x1.56c500p-1,  0x1.9ddc1ap+0,  0x1.7cf066p-1,
    -0x1.6860f0p-1, -0x1.31392ap+1, -0x1.c8c496p+0, -0x1.b498f8p-3,
     0x1.5a757ap+0,  0x1.ace282p-2,  0x1.acd536p-3, -0x1.e9add2p-2,
    -0x1.340cf4p+0, -0x1.38ded4p+0, -0x1.4e09f4p-1,  0x1.03f382p-3,
     0x1.33c5bcp+1,  0x1.9c1f34p+0,  0x1.321a7ap+0,  0x1.e3ce4ap-1,
     0x1.341c8cp-1,  0x1.309456p-3,  0x1.7dd5f8p-1,  0x1.642eb0p+0,
     0x1.1c4540p+1,  0x1.31363ep+0,  0x1.bb6782p+0,  0x1.b96c06p+0,
     0x1.bed6a4p+0,  0x1.6bafa4p+0,  0x1.3000acp+0,  0x1.616084p+0,
     0x1.4293e2p-1,  0x1.70af94p-2,  0x1.c3b4d0p-3,  0x1.0d5eacp-3,
    -0x1.33cb70p-1, -0x1.a90200p+0, -0x1.804918p+0, -0x1.54c70cp-2,
    -0x1.b304a2p+1, -0x1.333108p+1, -0x1.9c1a98p-2, -0x1.8ea090p-3,
    -0x1.f7ebd8p-7, -0x1.b9e746p+0, -0x1.1d1258p+1, -0x1.ddabe2p+0,
    -0x1.3f4a42p+1, -0x1.8d59ccp-1,  0x1.b940e4p+0,  0x1.dafb76p-4,
    -0x1.d1628ep-1, -0x1.1e5fa0p+1, -0x1.c549ecp+0, -0x1.66e6f6p-4,
     0x1.7ca758p+0,  0x1.ade0dcp-2,  0x1.983e2ap-3, -0x1.985752p-2,
    -0x1.31e0bep+0, -0x1.3faef6p+0, -0x1.388028p-1,  0x1.48a71ep-4,
     0x1.35cefcp+1,  0x1.978888p+0,  0x1.4e4766p+0,  0x1.cab7ccp-1,
     0x1.58e5f8p-1,  0x1.3d45fcp-3,  0x1.713be6p-1,  0x1.6c5b30p+0,
     0x1.1a4686p+1,  0x1.54cad2p+0,  0x1.c32944p+0,  0x1.d56a48p+0,
     0x1.bf937ep+0,  0x1.7bbc98p+0,  0x1.3c2788p+0,  0x1.6e2968p+0,
     0x1.8b8c3ep-1,  0x1.3be630p-2,  0x1.befacap-4,  0x1.27ab04p-6,
    -0x1.2de48ep-1, -0x1.a7d5f2p+0, -0x1.876c26p+0, -0x1.50bf0ap-2,
    -0x1.9add0cp+1, -0x1.3345e8p+1,  0x1.a6f652p-3,  0x1.2531c0p-1,
    -0x1.7fc4e0p-2, -0x1.935f12p+0, -0x1.172828p+1, -0x1.a83270p+0,
    -0x1.4c955ap+1, -0x1.c125a8p-1,  0x1.018af2p+0,  0x1.0ef24ep-1,
    -0x1.13cefap-1, -0x1.33509ep+1, -0x1.d3bb60p+0, -0x1.a099a6p-3,
     0x1.4a0914p+0,  0x1.99508cp-2,  0x1.3f7888p-3, -0x1.f3ef50p-2,
    -0x1.36bb40p+0, -0x1.2c2d42p+0, -0x1.e6db78p-2,  0x1.c88d7ep-3,
     0x1.3c33fep+1,  0x1.ac644ep+0,  0x1.552886p+0,  0x1.fe5cf8p-1,
     0x1.651364p-1,  0x1.ffd8a8p-3,  0x1.75f36cp-1,  0x1.6d6122p+0,
     0x1.1905aep+1,  0x1.42d8f4p+0,  0x1.b44cfcp+0,  0x1.d5e9f2p+0,
     0x1.b271a2p+0,  0x1.919ab0p+0,  0x1.2f57aap+0,  0x1.7ba7c8p+0,
     0x1.ed39fcp-1,  0x1.6ff3aap-2,  0x1.36d5e8p-2,  0x1.06d390p-3,
    -0x1.4e152ap-1, -0x1.912c96p+0, -0x1.6c2dc8p+0, -0x1.d4e43ap-3,
    -0x1.b9d24ep+1, -0x1.485322p+1, -0x1.6c37a2p-2,  0x1.92b858p-1,
     0x1.35bf30p-4, -0x1.422310p+0, -0x1.1a7798p+1, -0x1.95c21ap+0,
    -0x1.47dcc2p+1, -0x1.5c0d26p-1,  0x1.901d3ap+0,  0x1.a15de8p-2,
    -0x1.280194p+0, -0x1.590534p+1, -0x1.025658p+1, -0x1.233e8cp-1,
     0x1.6cf4c6p+0,  0x1.b33766p-2,  0x1.85d4e8p-4, -0x1.053374p-1,
    -0x1.3283e0p+0, -0x1.138dc6p+0, -0x1.f41862p-2,  0x1.d664eep-3,
     0x1.431816p+1,  0x1.917c5ep+0,  0x1.5d0f92p+0,  0x1.06e46cp+0,
     0x1.39b848p-1,  0x1.13d9e6p-2,  0x1.61842ap-1,  0x1.6d554cp+0,
     0x1.11bc7ep+1,  0x1.4fe4d0p+0,  0x1.ba5d68p+0,  0x1.cf85b6p+0,
     0x1.cabb76p+0,  0x1.79ff04p+0,  0x1.41198ap+0,  0x1.6b5e92p+0,
     0x1.b4a960p-1,  0x1.9376e6p-2,  0x1.5f287ap-2,  0x1.494166p-3,
    -0x1.e11efap-2, -0x1.aa6b14p+0, -0x1.5d4074p+0, -0x1.6b8416p-2,
    -0x1.d57ee8p+1, -0x1.4a60bep+1, -0x1.b7aa66p-1, -0x1.adefa4p-4,
     0x1.e7eb50p-5, -0x1.6eca2ep+0, -0x1.11c5dap+1, -0x1.b9331ep+0,
    -0x1.43e336p+1, -0x1.2ad9a2p-1,  0x1.b1cfe6p+0,  0x1.364816p-2,
    -0x1.086726p+0, -0x1.1d09b6p+1, -0x1.bd5f70p+0, -0x1.bd547ep-8,
     0x1.8471dap+0,  0x1.c67c98p-2,  0x1.5f6bf4p-3, -0x1.928bdcp-2,
    -0x1.1e6398p+0, -0x1.2817fcp+0, -0x1.085c7ap-1,  0x1.05a9cep-2,
     0x1.3d463cp+1,  0x1.ab45b6p+0,  0x1.5546a6p+0,  0x1.f90da4p-1,
     0x1.6eec78p-1,  0x1.411b1ep-3,  0x1.93d972p-1,  0x1.68acb8p+0,
    -0x1.efabdcp-8, -0x1.249196p-6,  0x1.38262ep-9,  0x1.2672b6p-5,
     0x1.9ce04ep-7, -0x1.229d86p-6,  0x1.edbfe6p-9,  0x1.989db4p-11,
     0x1.abadeap-6, -0x1.624aa8p-6, -0x1.2f2384p-4, -0x1.34fb52p-6,
     0x1.6139e8p-6,  0x1.af7ecap-5,  0x1.53185ap-9,  0x1.0bf2a6p-6,
    -0x1.f307d0p-8, -0x1.0c2e3ap-8,  0x1.0bb07cp-3, -0x1.7385fcp-8,
    -0x1.ee9bfcp-5, -0x1.c06b04p-5, -0x1.2a732cp-5,  0x1.3ceb6cp-8,
     0x1.4cf306p-7, -0x1.0b64d0p-9,  0x1.4d3c2cp-4,  0x1.5f4130p-4,
     0x1.9baf8ap-4, -0x1.b8bb4ep-4, -0x1.8a48acp-6, -0x1.1322dep-9,
    -0x1.dd5864p-6, -0x1.7a65fap-6, -0x1.29b25ap-4, -0x1.83ba4ep-7,
     0x1.ead9a8p-6,  0x1.62987cp-9,  0x1.c9c18ep-8, -0x1.85f2aep-6,
     0x1.2152cep-8, -0x1.d7cf1ap-7,  0x1.5ab6d0p-6, -0x1.5d36b6p-7,
    -0x1.5ece4ep-10,-0x1.bffd64p-7,  0x1.1ea25ep-10, 0x1.60fa26p-9,
     0x1.fe9678p-7, -0x1.a48e14p-7,  0x1.02a8eap-8, -0x1.60e16ap-6,
     0x1.a40bc6p-7,  0x1.30f400p-6,  0x1.e3232ap-15, 0x1.ba3d5ep-5,
    -0x1.0bf66ap-2, -0x1.2ffc7ap-5, -0x1.54800ap-4,  0x1.6a1bf2p-4,
    -0x1.377472p-5,  0x1.4bdeb0p-7, -0x1.aa9a24p-4,  0x1.1da69cp-3,
     0x1.20bd34p-2,  0x1.c7ce96p-3,  0x1.1d0618p-4, -0x1.cc1852p-3,
    -0x1.d54bfep-7, -0x1.46745ap-2,  0x1.4d6f08p-5, -0x1.03e6bcp-2,
     0x1.1ce9dep-1, -0x1.c43c42p-3,  0x1.d261e4p-2,  0x1.aa6d9ap-4,
     0x1.d2d674p-6,  0x1.06c498p-3,  0x1.32865ep-5, -0x1.736962p-2,
    -0x1.851cf6p-2,  0x1.cfdd56p-6, -0x1.f8c48ap-7,  0x1.e3669cp-6,
     0x1.a978c4p-5, -0x1.ae5c76p-4, -0x1.24794cp-3, -0x1.ff3d32p-5,
    -0x1.99a58ep-4, -0x1.b467a0p-5,  0x1.cfc768p-6, -0x1.af6034p-5,
     0x1.293342p-4,  0x1.291912p-4, -0x1.5e2e04p-5,  0x1.05fc38p-2,
     0x1.097ad6p-4, -0x1.8fea6cp-4, -0x1.4274c4p-5,  0x1.33d338p-3,
    -0x1.2308e0p-3,  0x1.0eb19ep-4, -0x1.19c1a0p-6, -0x1.415a52p-3,
    -0x1.53c104p-5,  0x1.4f5216p-4, -0x1.523854p-4,  0x1.33cc8ep-4,
     0x1.a709a4p-4, -0x1.63dd1ap-3,  0x1.3c876ep-3,  0x1.de8526p-7,
    -0x1.a0e024p-3, -0x1.320f18p-4,  0x1.931f2cp-8, -0x1.127ab4p-3,
    -0x1.d7b904p-4,  0x1.0250e2p-3, -0x1.1699c0p-2,  0x1.1e48bep-4,
    -0x1.8c20a2p-2, -0x1.56f5b6p-2, -0x1.c25822p-1, -0x1.1bbda0p+0,
    -0x1.c633b0p-1, -0x1.b37934p-2, -0x1.a8e06ep-4, -0x1.2d1a48p-4,
     0x1.6e4a64p-3, -0x1.0d24f4p-3,  0x1.92713ep-8,  0x1.d772acp-2,
    -0x1.923cbap-3,  0x1.0f0146p-3,  0x1.7a52fcp-4,  0x1.29de26p-4,
     0x1.35887cp-2,  0x1.afed58p-2,  0x1.6c72b4p-1,  0x1.1c9a90p+0,
     0x1.1bcdd4p+0,  0x1.5a954ep-4,  0x1.e9d566p-3,  0x1.6eae3cp-8,
    -0x1.bb9efap-7,  0x1.4f493cp-5, -0x1.ee9f40p-6, -0x1.362b2cp-10,
    -0x1.427ab8p-7, -0x1.34d456p-5, -0x1.e165e0p-7, -0x1.307ac6p-6,
     0x1.bb99acp-9, -0x1.f90478p-8,  0x1.9d9326p-6, -0x1.0151f8p-6,
     0x1.fa67fep-5,  0x1.c1fe9ep-4,  0x1.3f1082p-6,  0x1.554332p-4,
    -0x1.2646aap-4, -0x1.33fab6p-3,  0x1.d2ca8ap-3,  0x1.170bcep-2,
    -0x1.a05ae0p-3,  0x1.4f61dep-3, -0x1.a43cfep-4, -0x1.cf3468p-5,
    -0x1.1349cap-5,  0x1.485570p-4, -0x1.b7c3f4p-2,  0x1.342c74p-5,
     0x1.4c5c40p-2, -0x1.37f39ep-3,  0x1.163df8p-4, -0x1.15372ap-3,
    -0x1.82e7b8p-5,  0x1.835856p-5,  0x1.3c0fb2p-4,  0x1.1d37bap-3,
    -0x1.647a74p-3,  0x1.a75fb0p-7, -0x1.72168ap-6,  0x1.38155ep-3,
     0x1.04f23cp-8, -0x1.344fb6p-4, -0x1.0dd638p-8, -0x1.55050ep-5,
    -0x1.8df95ep-5,  0x1.74293cp-6, -0x1.923c4cp-5, -0x1.474342p-5,
     0x1.60f410p-4,  0x1.3de626p-2,  0x1.09c2dcp-1,  0x1.1bd360p-1,
     0x1.0db398p-1,  0x1.f3cd94p-3,  0x1.78f268p-6, -0x1.49945cp-8,
    -0x1.8fa4aep-4, -0x1.f71886p-2, -0x1.31070cp-1, -0x1.63066cp+0,
    -0x1.26c24cp-1, -0x1.87ae26p-2, -0x1.9b5ca6p-3,  0x1.0816e4p-1,
    -0x1.aebde0p-4,  0x1.802188p-2,  0x1.87a4dcp-3,  0x1.0ec378p-1,
     0x1.417dfep-3,  0x1.62bb08p-2, -0x1.da9e8cp-6, -0x1.7a9e9cp-2,
    -0x1.7a59ecp-3,  0x1.674d7ap-5, -0x1.dcf44cp-4, -0x1.982888p-3,
    -0x1.bd3f2ep-4,  0x1.d139e2p-6, -0x1.5acd86p-9, -0x1.492418p-6,
     0x1.83e946p-3, -0x1.9240f6p-3,  0x1.4f9c96p-4, -0x1.b6a802p-3,
    -0x1.0fff68p-5, -0x1.72ec9ap-4, -0x1.b1d306p-6,  0x1.bdc5acp-3,
    -0x1.38df60p-5,  0x1.d23a80p-4,  0x1.484542p-3,  0x1.375c76p-5,
     0x1.917dc2p-3,  0x1.01ff1cp-5,  0x1.d7fc66p-7, -0x1.ce8076p-4,
     0x1.ff9876p-5, -0x1.0f26c2p-3, -0x1.51bb86p-5, -0x1.4e1c14p-6,
    -0x1.927a2cp-6,  0x1.c4978ap-5, -0x1.c71a12p-4,  0x1.8ec57ap-3,
    -0x1.bcdfb0p-5,  0x1.73a660p-6,  0x1.0884ccp-3,  0x1.d6d7d8p-4,
    -0x1.0333d6p-2,  0x1.0ddd2ap-2,  0x1.bb075ep-5, -0x1.0a73b2p-4,
     0x1.6b8ac6p+0,  0x1.39fc8cp-2,  0x1.7fdbdep-2,  0x1.3bea40p-2,
    -0x1.86fb12p-2,  0x1.1f9b16p-2,  0x1.c62a58p-6, -0x1.0db6eep-2,
    -0x1.e5e6acp-3, -0x1.2921fcp-1, -0x1.999112p+0, -0x1.4a86c8p-3,
    -0x1.d83fecp-2,  0x1.1a1ab4p-3,  0x1.f78782p-3,  0x1.b65846p-2,
    -0x1.33192ep-1,  0x1.c102d0p-5,  0x1.7b83aap-4,  0x1.703576p-4,
     0x1.2398dap-4,  0x1.66f2e8p-3,  0x1.3151a4p-3, -0x1.5f3800p-8,
     0x1.4f0c84p-2, -0x1.9e0fbcp-3,  0x1.d8311ep-6,  0x1.4b5ff0p-4,
    -0x1.e9b26ep-3,  0x1.a5a4aap-4, -0x1.58a5d6p-3, -0x1.ddc3d2p-4,
    -0x1.754f3ap-5, -0x1.212d56p-4, -0x1.976672p-4, -0x1.d3566ap-5,
    -0x1.641ad4p-4,  0x1.03a4fep-5,  0x1.84a3a4p-7,  0x1.47fcbep-5,
     0x1.933bccp-4,  0x1.b8117cp-4,  0x1.c9d37ap-4, -0x1.501120p-6,
    -0x1.c62d6cp-3, -0x1.691a48p-3, -0x1.f84ce6p-4, -0x1.ccfb4ap-3,
     0x1.ad8164p-5,  0x1.40277ap-5,  0x1.30de00p-4,  0x1.5b0dd0p-5,
     0x1.16e488p-1, -0x1.ebc028p-5,  0x1.dd17ecp-4,  0x1.3e03eap-7,
     0x1.cfb3b6p-6, -0x1.51d5d4p-4,  0x1.e6765cp-5, -0x1.2358eep-2,
     0x1.fb6e18p-5,  0x1.e06012p-5,  0x1.158202p-5,  0x1.7bf4c0p-9,
    -0x1.6c3604p-4,  0x1.02d8fap-5, -0x1.bd79a4p-5,  0x1.570ea0p-4,
    -0x1.4e2178p-4,  0x1.0c37c4p-3, -0x1.e421c2p-5,  0x1.f241e4p-5,
     0x1.8348cap-5, -0x1.765110p-5,  0x1.0d6fb8p-5, -0x1.68f048p-5,
     0x1.9f8edcp-5, -0x1.fe0952p-5,  0x1.f49d04p-9, -0x1.7a9230p-10,
     0x1.827cbep-12, 0x1.93bcf8p-10,-0x1.b91fbcp-10,-0x1.a75f56p-5,
     0x1.077cf8p-6, -0x1.116480p-7, -0x1.fd7e60p-7,  0x1.8bb0eap-7,
     0x1.332130p-5, -0x1.8beb64p-5,  0x1.175144p-5,  0x1.80c96cp-5,
    -0x1.02f476p-10,-0x1.ea0812p-8, -0x1.20f852p-8,  0x1.e3f0d8p-8,
    -0x1.2f01a6p-6, -0x1.7b9964p-6, -0x1.fe0e30p-9, -0x1.834c02p-4,
    -0x1.9a2662p-7,  0x1.a89f40p-5, -0x1.1ee788p-5, -0x1.2907ecp-7,
     0x1.e269bcp-8,  0x1.35ef8cp-3,  0x1.8d04fap-2,  0x1.183448p+0,
     0x1.e758d6p-3,  0x1.e8da0cp-6,  0x1.cb2a94p-5,  0x1.17ee76p-5,
    -0x1.577c68p-3, -0x1.8bcb78p-4, -0x1.0cc2e4p-1, -0x1.f9bbcap-1,
    -0x1.b47beep-3, -0x1.2976eep-4, -0x1.a051f6p-5, -0x1.800500p-6,
     0x1.4dfb92p-4,  0x1.5e7b22p-7,  0x1.477572p-4,  0x1.828910p-6,
    -0x1.870d2ep-5,  0x1.485500p-4, -0x1.473748p-6, -0x1.2686f6p-6,
    -0x1.08c7c6p-5,  0x1.400674p-6, -0x1.70f100p-5,  0x1.f37048p-7,
    -0x1.63c814p-5, -0x1.441f44p-7, -0x1.802466p-7, -0x1.b87f7cp-6,
     0x1.430702p-6,  0x1.30d7f8p-9, -0x1.12c716p-3, -0x1.1c895cp-4,
     0x1.530b36p-5, -0x1.dcfbaep-6,  0x1.c2c244p-6, -0x1.841a0cp-6,
    -0x1.138d46p-3,  0x1.11d254p-3, -0x1.13720ap-5,  0x1.0b68c8p-1,
    -0x1.c9cfb0p-3, -0x1.f8fa20p-3, -0x1.fc6e72p-9, -0x1.b0159ep-6,
    -0x1.bf1272p-6, -0x1.0d379cp-3, -0x1.76693cp-4,  0x1.deb3dap-2,
    -0x1.00f518p-8,  0x1.273e08p-3,  0x1.6b2048p-6, -0x1.0e594cp-5,
     0x1.7a9a78p-8,  0x1.94540cp-5, -0x1.a52d1ap-8, -0x1.007d3cp-4,
    -0x1.f5d2c0p-6,  0x1.287a0ap-7,  0x1.1cdf2ep-5,  0x1.138af8p-4,
    -0x1.70f472p-7, -0x1.cf2eb4p-7, -0x1.6260ccp-6, -0x1.546370p-7,
    -0x1.6ecaf8p-9, -0x1.50aab4p-5, -0x1.979fc8p-7, -0x1.556830p-6,
     0x1.d0d174p-4, -0x1.87cbf6p-4, -0x1.4aa370p-5, -0x1.ba0a56p-8,
     0x1.34682ap-6, -0x1.94bb24p-7, -0x1.0503eep-6,  0x1.1fd524p-3,
    -0x1.46aec0p-2,  0x1.0cb6c6p-3, -0x1.ff16c4p-5,  0x1.df2604p-6,
    -0x1.16a558p-13, 0x1.f13c06p-6,  0x1.5fc4a8p-4, -0x1.0b26c0p-2,
     0x1.720f3ep-4, -0x1.a92d66p-3,  0x1.05ac46p-4, -0x1.9c7e00p-2,
    -0x1.181822p-5,  0x1.88ca48p-3, -0x1.ac748ep-5, -0x1.731470p-3,
     0x1.490a70p-2,  0x1.b54112p-2,  0x1.b79beep-5,  0x1.b15664p-3,
     0x1.7206eep-3, -0x1.075602p-2,  0x1.35e084p-3, -0x1.1c6f70p-4,
    -0x1.04e8f2p-2,  0x1.09ba88p-5, -0x1.562cf6p-3,  0x1.0c1892p-3,
    -0x1.fc4810p-4,  0x1.198998p-5,  0x1.b4133cp-6,  0x1.41b798p-4,
     0x1.31ab7ep-6, -0x1.266390p-7, -0x1.b62c1ap-6,  0x1.a03b18p-5,
    -0x1.80ce92p-5,  0x1.5e4c72p-6, -0x1.5d14dep-7, -0x1.66ab08p-5,
     0x1.94de50p-5, -0x1.80a9bcp-6, -0x1.581d72p-6,  0x1.6016bap-6,
    -0x1.b8c4bcp-5,  0x1.1eeab6p-6, -0x1.635f18p-5, -0x1.8819b0p-6,
    -0x1.256e50p-3, -0x1.0d013ep-4,  0x1.342bd8p-4,  0x1.051978p-2,
    -0x1.324548p-3, -0x1.f1ffe4p-6, -0x1.ec6c16p-5,  0x1.ee3c56p-6,
    -0x1.b326b4p-6, -0x1.44beb0p-4,  0x1.7485eep-2, -0x1.1bd992p-1,
    -0x1.9d89ccp-3,  0x1.c13434p-3, -0x1.c1fd64p-5,  0x1.c0288cp-4,
    -0x1.b6077ap-5, -0x1.b63524p-4, -0x1.f28732p-3, -0x1.540cbap-4,
     0x1.382124p-1,  0x1.4d6e6ap-2, -0x1.6043acp-5,  0x1.7723d2p-5,
    -0x1.e528f4p-6,  0x1.d19d5cp-7,  0x1.b3a0a4p-5,  0x1.b24992p-4,
    -0x1.bb540ap-8, -0x1.6a041cp-4,  0x1.8422e2p-8, -0x1.15da54p-4,
     0x1.a7c384p-6, -0x1.cb8696p-6,  0x1.a3c128p-7, -0x1.44a6f0p-5,
    -0x1.c566d8p-5,  0x1.0f8b5cp-5, -0x1.4d8004p-5,  0x1.1db4b2p-8,
    -0x1.d525aep-5,  0x1.cc1040p-6,  0x1.b7ecb4p-7,  0x1.12813cp-6,
    -0x1.933752p-11,-0x1.d2485ap-6, -0x1.d7fc8ep-7, -0x1.fb4c66p-6,
     0x1.ea29a0p-3, -0x1.1a13aap-4,  0x1.e31590p-4, -0x1.d16314p-6,
    -0x1.eed1acp-6, -0x1.bce940p-5,  0x1.29dfc2p-9,  0x1.a1ec86p-6,
    -0x1.72419ep-3, -0x1.d18e5ep-5, -0x1.c28202p-3, -0x1.83fd4cp-12,
     0x1.506c58p-3,  0x1.321bf6p-2,  0x1.9957c2p-4,  0x1.708b88p-2,
    -0x1.cce81ep-3,  0x1.b3f24cp-5,  0x1.a4ea1ap-8, -0x1.4c8150p-7,
    -0x1.a99844p-3, -0x1.a4c07ap-5, -0x1.19bd12p-3,  0x1.0ac8e8p-5,
     0x1.ccf1bep-6, -0x1.351bc4p-5, -0x1.e26456p-11, 0x1.3bcfd6p-5,
     0x1.53870ap-4, -0x1.9ad0a2p-6, -0x1.e777b8p-8, -0x1.bc316cp-4,
     0x1.590ec6p-5, -0x1.4567f4p-8,  0x1.a591c2p-6, -0x1.63298ep-7,
    -0x1.9c59a2p-6, -0x1.96ba8ap-6, -0x1.ccb940p-7, -0x1.4ac59ep-6,
    -0x1.f53bacp-5,  0x1.429e1cp-4, -0x1.33e1dap-7, -0x1.531460p-4,
     0x1.4614f4p-4, -0x1.f208b8p-5,  0x1.7c0c4cp-6,  0x1.06b4b0p-4,
     0x1.96c2b6p-5, -0x1.66f530p-4,  0x1.3eefbcp-4, -0x1.2b398ep-7,
    -0x1.4a3060p-6,  0x1.464900p-5, -0x1.4cb3c8p-5, -0x1.ca56b6p-5,
     0x1.d270b2p-5,  0x1.f9e982p-8, -0x1.429102p-4, -0x1.67b0fep-5,
    -0x1.34884cp-4,  0x1.b4c788p-6,  0x1.59a590p-5, -0x1.66d5bcp-6,
     0x1.94b30ep-3,  0x1.9e603ap-3,  0x1.ba97d8p-2,  0x1.4e1536p-1,
     0x1.e98306p-2,  0x1.58678ep-3,  0x1.ff709ep-5,  0x1.7d095ap-4,
    -0x1.2240c6p-4,  0x1.73c258p-4,  0x1.9714ccp-6, -0x1.7be1fcp-3,
     0x1.6e9cd6p-3, -0x1.05d6eep-4,  0x1.191624p-6, -0x1.3b3d64p-5,
    -0x1.bf7b9cp-4, -0x1.3affa6p-2, -0x1.64c250p-2, -0x1.26e478p-1,
    -0x1.42c5fep-1, -0x1.91ead4p-5, -0x1.2ba4f2p-3, -0x1.59cf0ep-5,
    -0x1.294f86p-6, -0x1.b45ee2p-10,-0x1.8d2da0p-6,  0x1.b9406ap-6,
    -0x1.fdee4ap-6, -0x1.1ba658p-9,  0x1.2c0beep-6, -0x1.966316p-9,
    -0x1.39aa28p-5,  0x1.e7dd9ap-5, -0x1.9c2208p-5,  0x1.4d8ad4p-4,
     0x1.3e3040p-4, -0x1.1626cep-6, -0x1.95fc3cp-9, -0x1.13648ep-5,
     0x1.0ec602p-5,  0x1.44bae4p-9, -0x1.4072f8p-6, -0x1.32a562p-2,
    -0x1.becba8p-4, -0x1.6796fcp-5,  0x1.9eee8ap-5,  0x1.83566ep-7,
    -0x1.0b403ep-7, -0x1.1c436ep-3, -0x1.0c93aep-1, -0x1.3c43c6p+0,
    -0x1.23156ep-2, -0x1.485784p-5, -0x1.599534p-5, -0x1.991f64p-6,
     0x1.34d27ap-3,  0x1.2fc938p-3,  0x1.715746p-1,  0x1.5fe356p+0,
     0x1.5bf47cp-2,  0x1.1247eap-4,  0x1.d42ad6p-5,  0x1.5f715cp-9,
    -0x1.84015ep-4, -0x1.524c72p-5, -0x1.d37830p-4,  0x1.1136b0p-7,
     0x1.5ecb8cp-5, -0x1.c52612p-4,  0x1.d8960ap-8,  0x1.033c1ap-7,
     0x1.190406p-11,-0x1.222fa4p-2, -0x1.068668p-2, -0x1.2a21b8p-5,
    -0x1.6a2778p-3, -0x1.d363bep-5, -0x1.c284e2p-12,-0x1.c0c968p-3,
     0x1.da9ae4p-6, -0x1.42fe3ap-3,  0x1.e9f86ep-4, -0x1.057d6ap-2,
    -0x1.d3188cp-3, -0x1.61585cp-3, -0x1.74b126p-3, -0x1.488716p-5,
     0x1.8a96f2p-4,  0x1.7bfc74p-3,  0x1.15c24cp-1,  0x1.c22b60p-1,
     0x1.cfebfep-2,  0x1.299a5cp-5, -0x1.9d1496p-4,  0x1.2f2fa2p-2,
     0x1.e73820p-3, -0x1.f6e004p-6,  0x1.3ffa4ap-1,  0x1.2caa7ap+0,
    -0x1.0d809ep-1, -0x1.bb79d4p-2, -0x1.aa3d66p-3, -0x1.ba51dcp-4,
    -0x1.601924p-4, -0x1.83dcd8p-3, -0x1.1daa42p-2, -0x1.acc9aap-5,
    -0x1.add886p-3,  0x1.54a01ep-5, -0x1.cc9ee0p-4, -0x1.d810bcp-2,
     0x1.e4f710p-7, -0x1.3fad24p-6, -0x1.0442e0p-4, -0x1.4ff2bap-9,
    -0x1.b376b0p-4, -0x1.268a16p-7, -0x1.185bb0p-4,  0x1.11a56cp-6,
    -0x1.e46cd6p-7,  0x1.a924f4p-5, -0x1.75e03ap-6,  0x1.76bce6p-6,
    -0x1.dbd870p-6, -0x1.19f050p-4, -0x1.1c4888p-5, -0x1.57039ap-5,
    -0x1.49680ap-4, -0x1.0a4ca0p-4, -0x1.38d0b2p-3, -0x1.51bb24p-7,
     0x1.43fbdep-5,  0x1.38e8fap-4,  0x1.649f8ep-4,  0x1.e55ac4p-5,
     0x1.d013f6p-4, -0x1.0022c4p-4, -0x1.e749f6p-4,  0x1.d575e0p-2,
     0x1.4c974cp-3, -0x1.d73bdap-3,  0x1.836490p-6, -0x1.711d1ap-3,
    -0x1.9fa254p-3, -0x1.1bec3cp-3,  0x1.d6ed8ep-4,  0x1.3fe940p-1,
    -0x1.688a72p-4, -0x1.b0aac8p-6, -0x1.410f76p-5, -0x1.5ebd9cp-6,
    -0x1.7628dcp-9,  0x1.5db1eap-4, -0x1.622234p-3, -0x1.8e2e70p-5,
    -0x1.55f492p-4, -0x1.2c6c1cp-5, -0x1.719b68p-6,  0x1.d0681ap-5,
    -0x1.4e95c6p-6,  0x1.d7371ap-5, -0x1.d39dd0p-4,  0x1.037edap-4,
    -0x1.5466f8p-5, -0x1.db2bd4p-7,  0x1.efe07ep-6, -0x1.4dd15cp-5,
     0x1.557888p-7, -0x1.e7df22p-12,-0x1.e083e6p-5, -0x1.a8494ap-8,
     0x1.f48790p-10,-0x1.0d7d58p-9,  0x1.1be350p-6, -0x1.ba314cp-7,
     0x1.254bf4p-4,  0x1.b8e5a6p-4,  0x1.48b214p-1,  0x1.59369cp+0,
     0x1.0b6556p-1,  0x1.b61ee6p-4,  0x1.81e526p-7,  0x1.f287b4p-5,
    -0x1.34880ap-4, -0x1.a90e20p-5, -0x1.34006cp-1, -0x1.e2d198p-1,
    -0x1.50edaap-1, -0x1.bf3b2ep-6, -0x1.060b88p-4, -0x1.88ba76p-7,
     0x1.6a71a2p-6, -0x1.b913aap-5, -0x1.09ad8ap-3, -0x1.0970dap-3,
    -0x1.5cc1b6p-3,  0x1.4659eep-5, -0x1.baac02p-6,  0x1.f93240p-7,
     0x1.85f8e4p-7,  0x1.77b908p-6, -0x1.a3fe80p-7,  0x1.93b126p-4,
    -0x1.3076c6p-6,  0x1.48a42cp-8,  0x1.c02716p-7, -0x1.f21c7ep-7,
    -0x1.20dddcp-6,  0x1.8b668ap-9,  0x1.b48df6p-10,-0x1.b378dcp-8,
    -0x1.51323ep-7, -0x1.12a696p-6,  0x1.5ac990p-9, -0x1.82754ep-6,
    -0x1.8b5fe2p-3, -0x1.cd5760p-6, -0x1.4203d2p-3, -0x1.5a9edcp-3,
    -0x1.17116ep-2, -0x1.82e3b2p-6, -0x1.3889dap-3, -0x1.a9d4f8p-4,
    -0x1.fa61cap-2, -0x1.2b0c8ap-1, -0x1.2264aap-3,  0x1.256a28p-7,
    -0x1.c2ca48p-3,  0x1.110f3ap-4, -0x1.16bc78p-1, -0x1.c030fep-1,
    -0x1.7d4b90p-2, -0x1.0da9fep-3, -0x1.74b45ep-4,  0x1.308064p-3,
    -0x1.4265c0p-2,  0x1.53cdb4p-1,  0x1.55e8aap-1,  0x1.dcc99ep+0,
     0x1.26804ap+1,  0x1.1a641cp-1, -0x1.1a26ccp-3, -0x1.174436p-4,
    -0x1.1d13bcp-4,  0x1.1da07cp-1,  0x1.52f278p-3, -0x1.3ff490p-1,
    -0x1.a288b2p-2, -0x1.93e852p-4,  0x1.db6b22p-4,  0x1.4d99bep-6,
    -0x1.05b9e4p-3, -0x1.6dbd4cp-3, -0x1.081a70p-7,  0x1.76ecdap-5,
    -0x1.45c0e4p-3, -0x1.23861ap-3, -0x1.f878e4p-11,-0x1.d119dep-4,
    -0x1.d1ad9ap-7,  0x1.9f02eap-3, -0x1.348e8cp-2, -0x1.23911ap-3,
    -0x1.a7fbe4p-9, -0x1.e0c94ep-6,  0x1.db97e6p-5,  0x1.c0c5e0p-6,
    -0x1.29b972p-7, -0x1.135df6p-6, -0x1.63b15ep-6, -0x1.3bf9bcp-7,
    -0x1.10db74p-4, -0x1.631c4ap-4, -0x1.c454f0p-2, -0x1.07633cp+0,
    -0x1.4ea03ap-2, -0x1.4d35f4p-4, -0x1.0dd214p-7, -0x1.4e4a56p-5,
     0x1.00ec1ap-4,  0x1.63ceb2p-5,  0x1.cc3996p-2,  0x1.0b2fc6p+0,
     0x1.bc370cp-2,  0x1.c2ae14p-5,  0x1.7fe19ep-6,  0x1.967d50p-5,
    -0x1.7b77fap-5,  0x1.b1829ep-5, -0x1.9268e4p-6, -0x1.50b284p-3,
     0x1.2be6a8p-4, -0x1.480172p-5,  0x1.a5e6ecp-8, -0x1.439b8ap-5,
     0x1.306196p-7, -0x1.a71358p-5,  0x1.3481bep-4, -0x1.a80eacp-6,
     0x1.a3e4c6p-5, -0x1.a155fcp-7, -0x1.492656p-7, -0x1.0a6d68p-8,
     0x1.9fe72ep-7,  0x1.c502aap-11,-0x1.770fa0p-7, -0x1.5389bap-6,
    -0x1.087188p-7,  0x1.1fd2c8p-9,  0x1.04f572p-8,  0x1.d10576p-6,
     0x1.afcf92p-6, -0x1.89f3cap-10, 0x1.9ecc0ap-5, -0x1.098a0ap-5,
     0x1.ec4dcep-5, -0x1.b5fdc6p-6,  0x1.3c5844p-6,  0x1.9ef1c8p-5,
    -0x1.4ae910p-5,  0x1.e9c5cap-6, -0x1.7e50d8p-5, -0x1.1b1f5cp-2,
    -0x1.b4e744p-4, -0x1.157da6p-3, -0x1.08aa0ap-5, -0x1.77a05ep-3,
    -0x1.cfd6acp-5, -0x1.660430p-7, -0x1.18b25cp-4,  0x1.394962p-1,
     0x1.a9cfdcp-2, -0x1.122874p-4,  0x1.050838p-3, -0x1.030fb8p-12,
    -0x1.053686p-4, -0x1.34d972p-4, -0x1.0e15dap-8, -0x1.5a36d0p-3,
    -0x1.a99298p-5, -0x1.9daa18p-5,  0x1.49da92p-5,  0x1.d36050p-5,
     0x1.6f51dcp-6, -0x1.13a826p-5,  0x1.cef58cp-5,  0x1.e29974p-6,
     0x1.5c7932p-7, -0x1.4b1bd4p-4, -0x1.6b44cep-7, -0x1.0bead8p-5,
    -0x1.f5c6d2p-7,  0x1.3e1868p-6, -0x1.92bbe4p-8, -0x1.dbc9aap-6,
     0x1.fa44a0p-7, -0x1.32de82p-8,  0x1.ed4b3ep-8,  0x1.ffbe06p-11,
     0x1.07e4eap-6, -0x1.5e1cacp-8,  0x1.e9fa62p-6,  0x1.3318a4p-5,
    -0x1.8c1488p-7,  0x1.467128p-5, -0x1.455c04p-7, -0x1.537be0p-5,
     0x1.0c7cccp-6, -0x1.ea8536p-6,  0x1.bf010ap-5, -0x1.532442p-3,
    -0x1.38ed90p-8,  0x1.f8cc20p-7, -0x1.6ef4aep-4,  0x1.b86a82p-4,
    -0x1.d5288ap-5, -0x1.6cef8ep-5, -0x1.12d878p-2,  0x1.08aa08p-1,
    -0x1.556d7ep-3, -0x1.1d078ep-3,  0x1.a770bep-5, -0x1.de72cep-4,
    -0x1.9f5730p-8, -0x1.361cf6p-3,  0x1.45c53ep-8,  0x1.131ddap+0,
     0x1.6253b2p-2,  0x1.b5735ap-7, -0x1.9f89a2p-8, -0x1.aaaa54p-3,
    -0x1.444366p-6,  0x1.90b036p-5, -0x1.3c64e4p-5, -0x1.ed3a10p-2,
    -0x1.a256dap-2, -0x1.503066p-7, -0x1.ceb60ep-4,  0x1.9acddep-4,
    -0x1.4b554ap-4,  0x1.111f5cp-6, -0x1.4f8b8ap-4,  0x1.703dfap-6,
     0x1.9e8b70p-5,  0x1.cbc0a4p-7,  0x1.b8e914p-11, 0x1.9179dep-5,
    -0x1.4bff8cp-6,  0x1.12061cp-3, -0x1.d5f3a8p-5,  0x1.6657fcp-5,
     0x1.e538f0p-5, -0x1.fa1a66p-4,  0x1.5ddb98p-4, -0x1.60db9ep-5,
     0x1.0694b4p-4, -0x1.996f62p-4, -0x1.c9a5d0p-6,  0x1.7036dap-3,
     0x1.4eb470p-4,  0x1.114318p-3,  0x1.3b0e58p-4, -0x1.392d2cp-6,
    -0x1.a4b25ap-4,  0x1.44b1d0p-4, -0x1.e7d2ccp-4,  0x1.292a28p-2,
    -0x1.4dacb6p-3,  0x1.5e1592p-3, -0x1.eb58eep-4,  0x1.61ef3cp-3,
    -0x1.ee4bc2p-3, -0x1.8f1f24p-5, -0x1.20a7f8p-3,  0x1.9d1afcp-3,
    -0x1.169884p-2,  0x1.194c3cp-3, -0x1.dd2128p-5,  0x1.f58b26p-3,
    -0x1.6eaf2ap-6,  0x1.9ee116p-5, -0x1.bdc5c2p-5, -0x1.130ea4p-4,
     0x1.3a1cd4p-4, -0x1.61219ap-2,  0x1.724db8p-4, -0x1.8e7720p-2,
     0x1.8f6cc2p-4, -0x1.61e0acp-4,  0x1.c4447ap-5,  0x1.5953b6p-4,
    -0x1.d97a8cp-4,  0x1.1b3f14p-3, -0x1.0abed8p-4,  0x1.746f4ep-6,
     0x1.2f65b4p-5, -0x1.58c1fcp-4,  0x1.6080dap-5,  0x1.25feaep-8,
    -0x1.f45a10p-5,  0x1.0d3ff8p-4, -0x1.97c9a8p-5, -0x1.a45fd0p-5,
     0x1.4316b2p-11, 0x1.d9a584p-5, -0x1.3a9c18p-5,  0x1.1fe718p-5,
    -0x1.3596b6p-4, -0x1.509b84p-3,  0x1.b1f8f6p-8, -0x1.092c3ep-3,
    -0x1.59da60p-3, -0x1.3067b4p-5, -0x1.8225eap-4, -0x1.70f68cp-4,
    -0x1.f3fb8cp-4, -0x1.0180c2p-4,  0x1.dc3ff8p-6,  0x1.a54bc4p-4,
    -0x1.5cf8dap-4, -0x1.27b768p-5,  0x1.3714dep-4,  0x1.77011cp-2,
     0x1.8bce9ap-3,  0x1.4a945cp-4, -0x1.e63ebep-4,  0x1.1cc816p-3,
     0x1.fe8274p-4, -0x1.7051aep-5,  0x1.a2cc40p-4,  0x1.bd8a9ap-4,
    -0x1.35c92cp-7,  0x1.939dccp-4,  0x1.e992ecp-6, -0x1.99820ap-5,
    -0x1.44fbc2p-5,  0x1.4c1340p-4, -0x1.a6027ep-4, -0x1.4311a4p-6,
     0x1.17213ap-5, -0x1.2277d6p-3,  0x1.6ac13cp-4, -0x1.592284p-5,
     0x1.4b4c7cp-10,-0x1.07671cp-5, -0x1.b9410cp-7, -0x1.75d336p-6,
    -0x1.717f4ap-6,  0x1.a73ab0p-8, -0x1.3e55c0p-5,  0x1.0c92b4p-10,
     0x1.259348p-6,  0x1.d66806p-5, -0x1.fe8536p-7, -0x1.27a97ap-5,
    -0x1.755274p-4, -0x1.ab8900p-6,  0x1.e5e974p-6, -0x1.b813a4p-6,
    -0x1.e6e96ep-8, -0x1.bd0dc0p-4,  0x1.4bc920p-12, 0x1.72cda2p-3,
     0x1.0705f8p-4, -0x1.f89b2ap-6,  0x1.532b7cp-5, -0x1.ffdfc2p-5,
    -0x1.4152eep-4, -0x1.da8bb2p-7, -0x1.777f80p-6,  0x1.16610cp-2,
     0x1.059838p-3, -0x1.93d9d2p-4, -0x1.534d5cp-8, -0x1.010808p-5,
     0x1.357210p-4,  0x1.51a838p-5,  0x1.596a64p-6, -0x1.cb7a08p-5,
    -0x1.e6d350p-5,  0x1.8cfcdap-5, -0x1.0e986ep-8, -0x1.881c92p-9,
    -0x1.b59bf4p-6,  0x1.bb8750p-9, -0x1.8c0140p-5,  0x1.2ecf90p-6,
    -0x1.518262p-6, -0x1.0668e8p-6,  0x1.0e5d8ap-6, -0x1.b35680p-7,
    -0x1.8c81cap-8, -0x1.a8f640p-10,-0x1.a3f582p-8,  0x1.132230p-4,
    -0x1.165edap-13, 0x1.f656bcp-9,  0x1.21c0cap-6, -0x1.300bb6p-6,
     0x1.9b63d2p-5, -0x1.47b588p-5,  0x1.e0da0ap-7, -0x1.955a00p-5,
    -0x1.729036p-5,  0x1.acb3a6p-5, -0x1.9a1d00p-7,  0x1.03980ep-5,
    -0x1.72bd78p-5,  0x1.acb30cp-4, -0x1.14e1b6p-4, -0x1.19a4d6p-4,
    -0x1.6d1f2cp-5, -0x1.58f59ap-5, -0x1.995016p-7,  0x1.3b1d18p-5,
    -0x1.e24c6ap-4, -0x1.be0a7cp-5,  0x1.386fe4p-4,  0x1.305484p-1,
    -0x1.b804e2p-3,  0x1.01e1b4p-3, -0x1.66f2e4p-4,  0x1.b505aap-7,
     0x1.719e72p-4, -0x1.4d1122p-3, -0x1.d0d0f2p-3, -0x1.a25a12p-1,
    -0x1.045ce0p-3, -0x1.7b0a64p-4, -0x1.bd2b6cp-6, -0x1.498952p-4,
     0x1.266666p-5,  0x1.bf4b64p-4,  0x1.0b041cp-2,  0x1.62879ep-2,
     0x1.962c3cp-3,  0x1.1f6928p-4,  0x1.c13768p-5,  0x1.330b80p-4,
    -0x1.3d9c54p-6, -0x1.646c90p-3, -0x1.c68d82p-7, -0x1.533fbcp-4,
     0x1.ed7b1ep-3, -0x1.432002p-4,  0x1.da047cp-4,  0x1.5e069cp-3,
    -0x1.37f8a2p-3,  0x1.6c9cb0p-2, -0x1.15f62ep-2, -0x1.81c40ap+0,
    -0x1.2d97f4p-1, -0x1.3bdcd4p-1,  0x1.c4af92p-6,  0x1.8518cap-2,
    -0x1.2657bcp-1, -0x1.b3c146p-1,  0x1.e274b0p-1,  0x1.39ec0ep+2,
     0x1.b3c35cp+0, -0x1.a47d66p-1, -0x1.bf548ap-3, -0x1.d635fep-2,
    -0x1.46da92p-2, -0x1.139bfep-1,  0x1.dbf87ap-1,  0x1.6632fap+1,
     0x1.8fedbap-1, -0x1.999e0ep-1, -0x1.c1f0d4p-7,  0x1.356d7ap-3,
    -0x1.41de06p-1, -0x1.d14818p-2, -0x1.1d12c8p+0, -0x1.270b76p+0,
    -0x1.672c24p-2, -0x1.25355cp-1, -0x1.17a2e0p-4, -0x1.27b1b4p-1,
    -0x1.8b4928p-2,  0x1.5432fep-3, -0x1.5427fep-6, -0x1.b953aap-3,
    -0x1.35e556p-7, -0x1.a70f92p-2, -0x1.08c438p-5, -0x1.8808c8p-2,
     0x1.56ce2cp-5, -0x1.01ba72p-5,  0x1.2c3a06p-4, -0x1.c144d4p-5,
     0x1.5c09ecp-6,  0x1.1a2e40p-9, -0x1.d18d6ap-6,  0x1.d262cap-6,
    -0x1.8c1966p-4, -0x1.b46de4p-5,  0x1.07bc28p-4,  0x1.52dffap-3,
     0x1.d9ebaep-6,  0x1.8a7a0ep-9,  0x1.d0dbacp-8, -0x1.2be2a8p-5,
     0x1.c8cd44p-8, -0x1.774a0ep-5, -0x1.2d50aap-3, -0x1.444ce8p-1,
     0x1.1eae52p-1,  0x1.2fb4b4p-2,  0x1.3b9102p-3,  0x1.83c9bep-3,
     0x1.f83bdcp-4,  0x1.832016p-5,  0x1.ffa682p-4, -0x1.aa5e00p-1,
    -0x1.11cf2ap-3,  0x1.df9a4ap-5, -0x1.26432ep-5,  0x1.f7927ap-5,
     0x1.0619fep-5, -0x1.085598p-4, -0x1.3e52b4p-7,  0x1.616860p-4,
    -0x1.17a0cep-9, -0x1.597802p-5, -0x1.176a06p-6, -0x1.6531b2p-6,
    -0x1.d516b6p-6,  0x1.4f92ecp-9,  0x1.4177f0p-6,  0x1.505ec0p-8,
    -0x1.84efb2p-8,  0x1.a2024cp-6, -0x1.52652ep-6,  0x1.ddd732p-7,
    -0x1.030baap-3,  0x1.3949bcp-4, -0x1.a6bbfap-5, -0x1.a4f22ep-6,
    -0x1.204194p-5, -0x1.1da472p-7,  0x1.f7fb44p-6, -0x1.03d166p-9,
    -0x1.de1a88p-4,  0x1.6e8fd2p-4, -0x1.d090fap-2,  0x1.124662p-4,
     0x1.b182fcp-3,  0x1.3f36f0p-5, -0x1.a29f6ap-7, -0x1.ade0a0p-5,
     0x1.6136bcp-3, -0x1.da2546p-9,  0x1.423a66p-1,  0x1.d29cd6p-2,
    -0x1.12b460p-2, -0x1.d5a0d8p-3, -0x1.9e0d6ap-4, -0x1.e35036p-4,
     0x1.17c76ep-3,  0x1.183a28p-5,  0x1.4df9c0p-5, -0x1.d6c23cp-3,
     0x1.4675aap-4, -0x1.d36fb8p-3,  0x1.2d6f5ap-4, -0x1.8435fep-5,
    -0x1.1cd0a4p-6,  0x1.f5f15ap-6, -0x1.172dc6p-4, -0x1.c1f9f6p-6,
    -0x1.bf863ep-6,  0x1.4a441ap-5,  0x1.069164p-10, 0x1.2410f6p-5,
    -0x1.af3212p-5, -0x1.9b830ap-7, -0x1.f72a62p-6,  0x1.5dad8ep-5,
     0x1.849358p-5, -0x1.12b7f2p-6,  0x1.285500p-9,  0x1.ffbbccp-8,
     0x1.66b31ap-6,  0x1.cce328p-7, -0x1.3223dep-8,  0x1.5a1c5ep-8,
    -0x1.1e645cp-7, -0x1.72d234p-6,  0x1.879e5ap-7, -0x1.074a3cp-5,
    -0x1.09db50p-4, -0x1.739dc4p-6,  0x1.15825ep-5,  0x1.2a5294p-5,
     0x1.88a34cp-12, 0x1.6559dcp-5, -0x1.387976p-5,  0x1.243644p-5,
    -0x1.e28ef0p-5, -0x1.ab263ep-5, -0x1.f1024ep-4,  0x1.c4418cp-2,
    -0x1.14cbdcp-5, -0x1.7eec26p-5, -0x1.b05e62p-7, -0x1.4227e4p-7,
    -0x1.adedf2p-4, -0x1.b4572cp-4, -0x1.0be620p-3,  0x1.445532p-2,
    -0x1.80b53ap-7,  0x1.9ad1c2p-8, -0x1.a95296p-6,  0x1.ca2bd8p-11,
     0x1.43c50ap-8, -0x1.7d81f2p-7,  0x1.43d6ecp-5, -0x1.c428dep-6,
    -0x1.0de9b8p-5, -0x1.230a62p-6, -0x1.9e2d9ep-10,-0x1.0714e2p-6,
    -0x1.f22aeap-8, -0x1.882128p-7, -0x1.f6d8ecp-8, -0x1.63397cp-7,
    -0x1.42ea44p-8,  0x1.33d60ap-6, -0x1.bb3beap-9,  0x1.ec7738p-7,
    -0x1.35a302p-5, -0x1.4f8e3ap-5,  0x1.0affbep-6, -0x1.e675cap-5,
     0x1.306168p-5, -0x1.7c118ep-4,  0x1.f586ccp-8,  0x1.964c70p-15,
     0x1.d333d8p-4, -0x1.40a678p-5, -0x1.350766p-3, -0x1.317490p-9,
    -0x1.1b2314p-7, -0x1.4d180ap-6, -0x1.6716f4p-8,  0x1.56aa5ap-7,
    -0x1.0d7da0p-5,  0x1.25b454p-5,  0x1.65b028p-2, -0x1.6f209ep-3,
     0x1.124fa6p-2, -0x1.026208p-5,  0x1.786fcep-6,  0x1.c7d6bap-4,
    -0x1.7fdeacp-4,  0x1.03342ap-6,  0x1.a434f6p-2, -0x1.af00a8p-3,
     0x1.61c00ap-2, -0x1.b15c8ap-3, -0x1.c1f39ep-4, -0x1.67d588p-3,
     0x1.197154p-5, -0x1.416f7ap-4, -0x1.3c649ap-4, -0x1.8736b4p-6,
     0x1.bb58f4p-10, 0x1.790b36p-7,  0x1.7093a0p-3, -0x1.442514p-6,
     0x1.24e074p-9, -0x1.1cd6f8p-4,  0x1.9ea4bep-7, -0x1.7e2d28p-4,
     0x1.029a4ep-6, -0x1.c40152p-4, -0x1.237848p-6, -0x1.12b720p-5,
    -0x1.84c0c0p-4, -0x1.b1a406p-6, -0x1.32879ep-3,  0x1.98ad8cp-4,
    -0x1.72d90cp-3,  0x1.64952cp-3, -0x1.675004p-4,  0x1.1491e4p-4,
    -0x1.1b5974p-2, -0x1.eb4b0cp-7,  0x1.431edap-9,  0x1.7f25c8p-2,
    -0x1.3418f8p-3, -0x1.cf644ap-8, -0x1.58296ap-3, -0x1.32a2d8p-3,
     0x1.dc88dep-1, -0x1.6f44c4p-3, -0x1.7388c2p-5,  0x1.69a9c4p-1,
    -0x1.b7f8b8p-3,  0x1.9b4210p-2,  0x1.571268p-3, -0x1.1e9264p-2,
     0x1.131c5ep-2, -0x1.4dfa22p-3, -0x1.040be4p-2,  0x1.235b50p-3,
    -0x1.290cdcp-1,  0x1.e952a6p-6,  0x1.669bd4p-5,  0x1.382148p-4,
    -0x1.458a36p-1,  0x1.2a367ep-3, -0x1.0947cep-2, -0x1.0d5898p-4,
    -0x1.559edap-3,  0x1.7dbe00p-3, -0x1.b12d1ep-5,  0x1.316904p-4,
     0x1.cba0cap-3, -0x1.b7a03ap-4,  0x1.0d2bc2p-4,  0x1.4a48b2p-4,
    -0x1.ac566cp-4,  0x1.27fd84p-3, -0x1.04b20ep-3, -0x1.ae031ep-6,
    -0x1.28ea26p-4, -0x1.c31f72p-9, -0x1.81da1ep-4,  0x1.906628p-5,
     0x1.140462p-6,  0x1.2128cap-5, -0x1.6e8df4p-7, -0x1.52a7cap-4,
     0x1.1dfeaep-3, -0x1.998fe2p-6, -0x1.d56378p-4,  0x1.b7a43cp-4,
    -0x1.845584p-1,  0x1.85f260p-9, -0x1.052cc6p-6,  0x1.c349b8p-4,
     0x1.0368e6p-1,  0x1.000804p-3,  0x1.06c672p-2,  0x1.a7f1d0p-1,
     0x1.fe8f5cp-2, -0x1.5c68d8p-2, -0x1.96fe84p-3, -0x1.53c184p-2,
    -0x1.596668p-5, -0x1.b188a2p-3,  0x1.f664c2p-2,  0x1.1bf76ep-2,
    -0x1.f54292p-2,  0x1.4bb916p-5, -0x1.2e0940p-4, -0x1.7e1b8cp-7,
    -0x1.559842p-2, -0x1.9c74e6p-6, -0x1.7c6e84p-2,  0x1.36fa5cp-3,
    -0x1.1f1ffcp-6,  0x1.680866p-4,  0x1.842312p-4, -0x1.27f76ap-4,
     0x1.e2314ap-4, -0x1.553904p-4,  0x1.843666p-9, -0x1.7a3d4ep-7,
    -0x1.c140acp-4,  0x1.81291ep-5, -0x1.e8c656p-4, -0x1.368a9cp-5,
    -0x1.ae9f3cp+2, -0x1.12a9d2p+3, -0x1.e3d51ap+2, -0x1.a06f60p+2,
    -0x1.04b1eap+3, -0x1.315ff4p+3, -0x1.c764bep+2, -0x1.95f506p+2,
    -0x1.d43880p+2, -0x1.06e2e6p+3, -0x1.eccd62p+2, -0x1.db6dc6p+2,
    -0x1.c2572ep+2, -0x1.a3a1f6p+2, -0x1.fbbe80p+2, -0x1.f96b22p+2,
    -0x1.a15ca4p+2, -0x1.139768p+3, -0x1.915c00p+2, -0x1.f2bd12p+2,
    -0x1.e99f1cp+2, -0x1.c67f18p+2, -0x1.af34a4p+2, -0x1.c02452p+2,
    -0x1.df67dap+2, -0x1.15fab8p+3, -0x1.df66ccp+2, -0x1.e9df56p+2,
    -0x1.d30e6cp+2, -0x1.daf8dcp+2, -0x1.121686p+3, -0x1.fe19f8p+2,
     0x1.00e56cp-1,  0x1.fb353cp-2, -0x1.e625c4p-8, -0x1.387ec2p+0,
     0x1.1dfb76p-3,  0x1.6cec3ep-2,  0x1.3c3b4ap-3, -0x1.018884p-7,
    -0x1.100b6ep-3, -0x1.778638p+0, -0x1.196fdap-1,  0x1.ee8094p-1,
    -0x1.2c729ep-8, -0x1.29a4d0p-11, 0x1.2a3b20p+0,  0x1.330550p-1,
    -0x1.25164ap-4, -0x1.88a5b8p-2,  0x1.f939c0p-6,  0x1.ffe2aap-2,
    -0x1.3582c4p-6, -0x1.a55034p+0,  0x1.87ce20p+0, -0x1.8a0ae6p-7,
    -0x1.311e7ap-5,  0x1.672f3ep-1, -0x1.c93a7ap-4,  0x1.3fbd04p-4,
     0x1.54617ap-1, -0x1.ac5548p-1, -0x1.bb489ap+0, -0x1.fd70dap-2,
};

ALIGNED_16(static const float scale_weights_8x6x64[49*128]) = {
     0x1.137ef6p+0, -0x1.46bf98p-3,  0x1.a19e5cp-4,  0x1.2ba812p+0,
     0x1.f50782p-2,  0x1.a15da4p-3,  0x1.81c33ap-2,  0x1.14117cp-6,
     0x1.24aaa0p-2, -0x1.b00188p+0, -0x1.a7ce1ap+0,  0x1.460f0cp-1,
     0x1.ef8b38p-3, -0x1.760f78p-1, -0x1.47951ep-1, -0x1.19cb32p-1,
    -0x1.f5c606p+1, -0x1.9ab346p+1, -0x1.142396p+0,  0x1.8458acp+0,
    -0x1.523978p-2, -0x1.697b78p+1, -0x1.a156e2p+0, -0x1.58d180p+0,
    -0x1.98b6b4p+1, -0x1.956c88p+1, -0x1.178d36p-1,  0x1.a29cd6p+0,
    -0x1.612ae2p-1, -0x1.49a346p+1, -0x1.176256p+1, -0x1.b3f6c0p-1,
     0x1.0984fap+1,  0x1.96756ap-1,  0x1.287f68p+0,  0x1.87d2d2p+0,
     0x1.4ff20ap-1,  0x1.ec5db8p-3,  0x1.181774p+0,  0x1.4912f4p+0,
     0x1.14310ep+1,  0x1.5822f0p-1,  0x1.b6590ep-1,  0x1.08d9d6p+1,
     0x1.248f92p+1,  0x1.3ac46cp+1,  0x1.5a5946p+1,  0x1.088584p+1,
     0x1.257400p+0, -0x1.2640e0p-3,  0x1.239ca2p-7,  0x1.31795cp+0,
     0x1.fc94dep-2,  0x1.450bd8p-3,  0x1.e066bcp-2,  0x1.dfff26p-5,
     0x1.bb2a94p-2, -0x1.a32242p+0, -0x1.c5d6eep+0,  0x1.45eec8p-1,
     0x1.78960ep-5, -0x1.0a8df0p-1, -0x1.8397e0p-1, -0x1.5937a6p-1,
    -0x1.0896d2p+2, -0x1.efeea8p+1, -0x1.008222p+0,  0x1.d69f86p-2,
    -0x1.23ec84p-2, -0x1.40a6eap+1, -0x1.a90ba8p+0, -0x1.2d9840p+0,
    -0x1.641b12p+1, -0x1.777334p+1,  0x1.9a1bd8p-3,  0x1.4f8298p+0,
     0x1.ca7afep-3, -0x1.66668cp+1, -0x1.ebea28p+0, -0x1.49374ap-1,
     0x1.158062p+1,  0x1.9670b6p-1,  0x1.4129bap+0,  0x1.eba37ep+0,
     0x1.3f324cp-1,  0x1.68ecfap-2,  0x1.2802b4p+0,  0x1.4cd6b2p+0,
     0x1.25445ep+1,  0x1.bcc790p-2,  0x1.ead81ep-1,  0x1.0d3d0ap+1,
     0x1.174a3ap+1,  0x1.47984ep+1,  0x1.531b5cp+1,  0x1.0977fap+1,
     0x1.0b527ap+0, -0x1.21d6aep-4, -0x1.08ae7ap-7,  0x1.1f95bap+0,
     0x1.119c8cp-1,  0x1.7f8cd8p-3,  0x1.0ce796p-1,  0x1.33d8b2p-4,
     0x1.430418p-2, -0x1.c85604p+0, -0x1.bda2e6p+0,  0x1.213696p-1,
     0x1.6d8cc4p-2, -0x1.5011f8p-1, -0x1.456a42p-1, -0x1.7de152p-1,
    -0x1.da243ep+1, -0x1.b215eap+1, -0x1.45a03ap-1,  0x1.cf73c4p-1,
    -0x1.6c23d6p-1, -0x1.447e94p+1, -0x1.c8d5a8p+0, -0x1.291392p+0,
    -0x1.86855cp+1, -0x1.73ddd4p+1, -0x1.4d0344p-1,  0x1.5d1478p+0,
     0x1.ece8a6p-3, -0x1.2652b8p+1, -0x1.d760a6p+0, -0x1.085aeap-1,
     0x1.161fe8p+1,  0x1.c34ccap-1,  0x1.57a758p+0,  0x1.dae40ap+0,
     0x1.70b0dap-1,  0x1.b5ae34p-3,  0x1.3afb86p+0,  0x1.3a220cp+0,
     0x1.23c2cep+1,  0x1.1957d4p-1,  0x1.e6906cp-1,  0x1.0e0956p+1,
     0x1.230a54p+1,  0x1.4a02aep+1,  0x1.59823cp+1,  0x1.0d138ap+1,
     0x1.16074ap+0, -0x1.9c3432p-3, -0x1.417e6ap-7,  0x1.101ed8p+0,
     0x1.0ab3a2p-1,  0x1.8226bap-3,  0x1.d96ff2p-2, -0x1.45d29ap-5,
     0x1.08a2c0p-1, -0x1.a4334cp+0, -0x1.8d72f8p+0,  0x1.654fe6p-1,
     0x1.401e40p-2, -0x1.7d7e5ap-1, -0x1.1d36b0p-1, -0x1.45aaa8p-1,
    -0x1.0deb6cp+2, -0x1.bfe070p+1, -0x1.4c0bbap+0,  0x1.2fac62p-2,
    -0x1.3e0e9ap-1, -0x1.50331cp+1, -0x1.bcfb9cp+0, -0x1.2d5f60p+0,
    -0x1.68822ep+1, -0x1.7a7b3ep+1,  0x1.51c814p-5,  0x1.8ea8c6p+0,
    -0x1.0200b2p-2, -0x1.4a5e98p+1, -0x1.09363ap+1, -0x1.4fb244p-1,
     0x1.0b21a6p+1,  0x1.b1a684p-1,  0x1.36ac64p+0,  0x1.d8dbe8p+0,
     0x1.771ab6p-1,  0x1.348152p-2,  0x1.4a11fcp+0,  0x1.3b2e2cp+0,
     0x1.20bff0p+1,  0x1.1d6256p-1,  0x1.dc7650p-1,  0x1.0e30aep+1,
     0x1.1e8cbap+1,  0x1.3b9fd2p+1,  0x1.5b3c10p+1,  0x1.0cb516p+1,
     0x1.1f0b60p+0, -0x1.f52526p-4, -0x1.b40804p-7,  0x1.3bc2eap+0,
     0x1.07c4c6p-1,  0x1.5156cep-3,  0x1.c02740p-2,  0x1.f4f06cp-8,
     0x1.5ec6b6p-2, -0x1.c3cf1ep+0, -0x1.c5ac00p+0,  0x1.59a7f0p-2,
    -0x1.511e60p-5, -0x1.b8e7f8p-1, -0x1.9992b8p-1, -0x1.c01158p-1,
    -0x1.0fa1fap+2, -0x1.de1cb8p+1, -0x1.5f445ep+0,  0x1.18d49ap+0,
    -0x1.301390p-1, -0x1.28f224p+1, -0x1.c06dd2p+0, -0x1.139538p+0,
    -0x1.664f9cp+1, -0x1.5d8804p+1,  0x1.d51de4p-3,  0x1.cc7278p+0,
    -0x1.f0a59ep-4, -0x1.3b13c6p+1, -0x1.f46a8ep+0, -0x1.dbce76p-2,
     0x1.0f4386p+1,  0x1.a7331ep-1,  0x1.04e1d8p+0,  0x1.cbcfd0p+0,
     0x1.29527ap-1,  0x1.64e536p-2,  0x1.2ed1dcp+0,  0x1.384ae4p+0,
     0x1.221758p+1,  0x1.096472p-1,  0x1.d0df1ap-1,  0x1.11584cp+1,
     0x1.15ae9ep+1,  0x1.44e1d2p+1,  0x1.5075bcp+1,  0x1.064028p+1,
     0x1.1a4236p+0, -0x1.e2ae6cp-4, -0x1.3f49e4p-5,  0x1.2c6a28p+0,
     0x1.14fe36p-1,  0x1.58abbep-6,  0x1.ec4aa2p-2,  0x1.8fe810p-12,
     0x1.23ea0ep-1, -0x1.c317ecp+0, -0x1.9e0e22p+0,  0x1.11f488p-1,
     0x1.25e27cp-3, -0x1.22b36ap-1, -0x1.4f5e82p-1, -0x1.e68bcap-2,
    -0x1.08de2ap+2, -0x1.da1faep+1, -0x1.409d2ep-1,  0x1.a44460p+0,
    -0x1.fc708cp-5, -0x1.0602c4p+1, -0x1.c787b0p+0, -0x1.25d6b6p+0,
    -0x1.ae401ap+1, -0x1.8700b4p+1, -0x1.621a1ep-1,  0x1.ab34e2p+0,
    -0x1.a8aa0ap-2, -0x1.8d335cp+1, -0x1.2f7f06p+1, -0x1.27b34ap+0,
     0x1.03a49cp+1,  0x1.daee64p-1,  0x1.01e7b6p+0,  0x1.a61600p+0,
     0x1.3fcbb4p-1,  0x1.40b94ap-2,  0x1.3f9c10p+0,  0x1.5976f2p+0,
     0x1.2c09e8p+1,  0x1.f3bfe4p-2,  0x1.eea9c2p-1,  0x1.04f7f0p+1,
     0x1.0adafep+1,  0x1.491066p+1,  0x1.48f1e8p+1,  0x1.f4a388p+0,
     0x1.16e606p+0, -0x1.e1c94ep-5,  0x1.b18c9ap-5,  0x1.3195eap+0,
     0x1.2b48c0p-1,  0x1.33cc98p-3,  0x1.0579d0p-1,  0x1.1da256p-4,
     0x1.c73c52p-2, -0x1.c160f4p+0, -0x1.c8f7eap+0,  0x1.3fa592p-2,
     0x1.946186p-6, -0x1.9f3c5ap-1, -0x1.6c18b8p-1, -0x1.8ec52cp-1,
    -0x1.13589ep+2, -0x1.f4f8aap+1, -0x1.661d10p+0,  0x1.65c8acp+0,
    -0x1.6a9aaep-2, -0x1.2bf684p+1, -0x1.af46e0p+0, -0x1.064190p+0,
    -0x1.5b4c46p+1, -0x1.480f5ep+1,  0x1.6ca74cp-2,  0x1.067068p+1,
     0x1.59ba78p-3, -0x1.5e4200p+1, -0x1.140718p+1, -0x1.c82b9ep-1,
     0x1.0b7974p+1,  0x1.b4f71ep-1,  0x1.15bc16p+0,  0x1.a7d6c6p+0,
     0x1.3197dap-1,  0x1.9bb1a0p-2,  0x1.48c69ep+0,  0x1.6b7a40p+0,
     0x1.28f548p+1,  0x1.08c508p-1,  0x1.e4e8e2p-1,  0x1.0e7f6cp+1,
     0x1.170dbep+1,  0x1.447dfep+1,  0x1.564eb8p+1,  0x1.032bb6p+1,
     0x1.2ccb5cp+0, -0x1.001994p-3,  0x1.416d20p-4,  0x1.306a28p+0,
     0x1.21faa6p-1,  0x1.19f90cp-2,  0x1.fb32c8p-2,  0x1.63e412p-5,
     0x1.58e28ap-1, -0x1.b1a836p+0, -0x1.9498d6p+0,  0x1.73fa20p-1,
     0x1.e826e8p-3, -0x1.b716c4p-2, -0x1.341d74p-1, -0x1.f6bb34p-2,
    -0x1.04cc7ep+2, -0x1.c00f7cp+1, -0x1.15b602p+0,  0x1.185c50p-1,
    -0x1.3312f6p-1, -0x1.50ad10p+1, -0x1.f643a2p+0, -0x1.d9406ep+0,
    -0x1.9784a8p+1, -0x1.7137ccp+1, -0x1.845962p-3,  0x1.3c3046p+0,
    -0x1.d13830p-3, -0x1.27d9c8p+1, -0x1.00133ep+1, -0x1.0cfc52p-1,
     0x1.3fed14p+1,  0x1.b0c80ap-1,  0x1.4eac66p+0,  0x1.fdeaeep+0,
     0x1.69945ap-1,  0x1.f694ecp-2,  0x1.40ce8cp+0,  0x1.746e72p+0,
     0x1.332c40p+1,  0x1.f1ec98p-2,  0x1.080692p+0,  0x1.10fddcp+1,
     0x1.1e3716p+1,  0x1.5c8624p+1,  0x1.52639ap+1,  0x1.188f0ep+1,
     0x1.27e6aap+0, -0x1.6f72c2p-3,  0x1.e82634p-5,  0x1.267cdep+0,
     0x1.22a56cp-1,  0x1.1c322cp-3,  0x1.f1a548p-2,  0x1.0e0d8cp-4,
     0x1.7dbaacp-1, -0x1.c1761cp+0, -0x1.87f7eep+0,  0x1.60b16ep-1,
     0x1.4039bep-3, -0x1.39e3c8p-1, -0x1.531792p-1, -0x1.0c5ff6p-1,
    -0x1.3060a0p+2, -0x1.d78b00p+1, -0x1.60addcp+0,  0x1.ed00c0p-1,
    -0x1.f7feaap-3, -0x1.104158p+1, -0x1.b10592p+0, -0x1.ca14f2p-1,
    -0x1.7ebe94p+1, -0x1.6101d6p+1, -0x1.4e9f20p-3,  0x1.3c9854p+0,
    -0x1.2ed2a0p-1, -0x1.86ed4ep+1, -0x1.31e90cp+1, -0x1.840d32p+0,
     0x1.23bf18p+1,  0x1.b6b0cap-1,  0x1.322764p+0,  0x1.e8b0c8p+0,
     0x1.9055b2p-1,  0x1.031756p-1,  0x1.5c947ep+0,  0x1.789ab0p+0,
     0x1.272f38p+1,  0x1.02eaf4p-1,  0x1.ed3bbcp-1,  0x1.065a30p+1,
     0x1.12f032p+1,  0x1.4c423ap+1,  0x1.4e0650p+1,  0x1.0c9b50p+1,
     0x1.26cca6p+0, -0x1.1cbb86p-3,  0x1.df3310p-4,  0x1.318020p+0,
     0x1.39e096p-1,  0x1.772bbap-3,  0x1.10a2c0p-1,  0x1.94d77ep-4,
     0x1.1352f6p-1, -0x1.b51a5ap+0, -0x1.c2711ap+0,  0x1.13b5e6p-1,
     0x1.f765f6p-4, -0x1.15d0fep-1, -0x1.3de4c6p-1, -0x1.586db4p-1,
    -0x1.fb9b30p+1, -0x1.d903cap+1, -0x1.25f6f0p+0, -0x1.0ab9dap-8,
    -0x1.623faep-2, -0x1.36927cp+1, -0x1.ad0c46p+0, -0x1.1333f6p+0,
    -0x1.6eef04p+1, -0x1.6ce516p+1,  0x1.6d20c2p-5,  0x1.d76158p-1,
    -0x1.1197aep-11,-0x1.5046a4p+1, -0x1.02f576p+1, -0x1.78afc6p-1,
     0x1.1496d2p+1,  0x1.c073dap-1,  0x1.5380cep+0,  0x1.002da4p+1,
     0x1.7b993ep-1,  0x1.e05aa6p-2,  0x1.3a6d78p+0,  0x1.5b95bap+0,
     0x1.289d9ep+1,  0x1.f0d6b8p-2,  0x1.00265cp+0,  0x1.02d15ap+1,
     0x1.1890b0p+1,  0x1.4590d8p+1,  0x1.57a8b2p+1,  0x1.0f5fe0p+1,
     0x1.11dba2p+0, -0x1.7a7aeep-3,  0x1.2e0ed6p-5,  0x1.05748ap+0,
     0x1.fdd34cp-2,  0x1.ff54f0p-4,  0x1.b3b6fap-2, -0x1.33af44p-5,
     0x1.5f4c9cp-2, -0x1.d2378ap+0, -0x1.b68452p+0,  0x1.cf74d4p-2,
     0x1.7c9cfcp-3, -0x1.7391e6p-1, -0x1.6bc7e2p-1, -0x1.874120p-1,
    -0x1.f51310p+1, -0x1.f24b0cp+1, -0x1.009678p+0,  0x1.a8032cp-1,
    -0x1.e53f34p-2, -0x1.32b760p+1, -0x1.cfeee8p+0, -0x1.234d38p+0,
    -0x1.6b9ab4p+1, -0x1.626d68p+1,  0x1.75cea2p-5,  0x1.083bfep+1,
     0x1.038d14p-3, -0x1.37a658p+1, -0x1.f7534ap+0, -0x1.01f4eap-1,
     0x1.0e31b2p+1,  0x1.8626bcp-1,  0x1.0deb4cp+0,  0x1.8935d8p+0,
     0x1.ec77a2p-2,  0x1.5ca710p-2,  0x1.1d4c4ap+0,  0x1.590dfep+0,
     0x1.1aaf98p+1,  0x1.de52dcp-2,  0x1.c4d622p-1,  0x1.f5e5dcp+0,
     0x1.10223cp+1,  0x1.4175b0p+1,  0x1.4c1144p+1,  0x1.06dc34p+1,
     0x1.2124b6p+0, -0x1.a9d232p-4,  0x1.842c90p-10, 0x1.409964p+0,
     0x1.1f4138p-1,  0x1.a7b6c6p-4,  0x1.1bae9ap-1,  0x1.05221cp-4,
     0x1.160350p-1, -0x1.b7da22p+0, -0x1.ddda36p+0,  0x1.5e03f2p-1,
     0x1.a6a0e2p-4, -0x1.238226p-1, -0x1.4e1cbep-1, -0x1.4c3968p-1,
    -0x1.f36af0p+1, -0x1.dcb2aap+1, -0x1.23e99cp-1,  0x1.eac8fap-2,
    -0x1.21955cp-1, -0x1.17e3f0p+1, -0x1.ab61e0p+0, -0x1.037c70p+0,
    -0x1.81d3f4p+1, -0x1.58db8ap+1, -0x1.179e8ap-1,  0x1.006a26p+0,
     0x1.4bee84p-2, -0x1.73c262p+1, -0x1.1018f4p+1, -0x1.b6d454p-1,
     0x1.0bddbcp+1,  0x1.a6f7cap-1,  0x1.14d4fcp+0,  0x1.ee5346p+0,
     0x1.73d314p-1,  0x1.ad4188p-2,  0x1.5a260cp+0,  0x1.4a104cp+0,
     0x1.29af3cp+1,  0x1.f0eda8p-2,  0x1.f1f186p-1,  0x1.0f7b26p+1,
     0x1.18013ep+1,  0x1.576c00p+1,  0x1.5644d8p+1,  0x1.0e387cp+1,
     0x1.21b440p+0, -0x1.3fcd9ap-4,  0x1.b80896p-4,  0x1.1a5cd0p+0,
     0x1.2dc7eep-1,  0x1.276d50p-3,  0x1.0b9bacp-1,  0x1.19d9fep-7,
     0x1.f25834p-2, -0x1.d0d2f8p+0, -0x1.90456cp+0,  0x1.0a9242p-1,
     0x1.4d7fb6p-2, -0x1.5c2320p-1, -0x1.86ebb4p-1, -0x1.0c7604p-1,
    -0x1.f739bep+1, -0x1.cbda16p+1, -0x1.781b98p-1,  0x1.0272acp+0,
    -0x1.50ba22p+0, -0x1.21c37ep+1, -0x1.b117dcp+0, -0x1.1a2dd4p+0,
    -0x1.98758cp+1, -0x1.74de28p+1, -0x1.040854p+0,  0x1.ae71bep+0,
    -0x1.91d5aap-8, -0x1.353b8ep+1, -0x1.00d4d4p+1, -0x1.8252f6p-1,
     0x1.f681bap+0,  0x1.bf3608p-1,  0x1.439f04p+0,  0x1.cdad5ap+0,
     0x1.605880p-1,  0x1.ef2d2ep-3,  0x1.3d0cc0p+0,  0x1.492dd8p+0,
     0x1.2bc37ap+1,  0x1.fd9228p-2,  0x1.e24ff6p-1,  0x1.eb86bcp+0,
     0x1.1c86c0p+1,  0x1.49d5c6p+1,  0x1.4e0e32p+1,  0x1.08162ep+1,
     0x1.1d26ecp+0, -0x1.755b44p-6, -0x1.541996p-4,  0x1.1d232ep+0,
     0x1.251d86p-1, -0x1.e8aaf6p-9,  0x1.290108p-1, -0x1.9abac0p-7,
     0x1.bf982cp-2, -0x1.ca5c04p+0, -0x1.89ba1cp+0,  0x1.737e64p-1,
     0x1.31a650p-2, -0x1.435d4cp-1, -0x1.4bde00p-1, -0x1.3108d4p-1,
    -0x1.dc9126p+1, -0x1.b85f76p+1, -0x1.9daf96p-1,  0x1.88638cp-1,
    -0x1.f1c2d8p-5, -0x1.e343dep+0, -0x1.88fed2p+0, -0x1.616cc0p-1,
    -0x1.6c57ecp+1, -0x1.4b4a98p+1, -0x1.b5e5a4p-2,  0x1.fa2950p-2,
    -0x1.5ada56p-1, -0x1.72f644p+1, -0x1.23b95ap+1, -0x1.fd944ep-1,
     0x1.fa7024p+0,  0x1.f4d940p-1,  0x1.ef3cd4p-1,  0x1.e7e74ap+0,
     0x1.ba572ep-1,  0x1.4f3030p-2,  0x1.5a3896p+0,  0x1.4dd1bcp+0,
     0x1.28ea46p+1,  0x1.2044b2p-1,  0x1.f04d60p-1,  0x1.e26fd8p+0,
     0x1.0b277ap+1,  0x1.4a4bb8p+1,  0x1.4d18acp+1,  0x1.f03c14p+0,
     0x1.2c89bap+0, -0x1.62fc52p-5,  0x1.4e441cp-4,  0x1.3a8530p+0,
     0x1.30f89ap-1,  0x1.e7e28cp-3,  0x1.ecb2d6p-2,  0x1.25c8fcp-3,
     0x1.b3daaep-2, -0x1.b14a50p+0, -0x1.bc3a50p+0,  0x1.c6f154p-2,
     0x1.b450aep-5, -0x1.742450p-1, -0x1.361922p-1, -0x1.816652p-1,
    -0x1.32143ap+2, -0x1.fa0820p+1, -0x1.6ce9b6p+0,  0x1.9c18a8p-1,
    -0x1.2e23aep-1, -0x1.2b82dcp+1, -0x1.ace8c6p+0, -0x1.483316p+0,
    -0x1.3c3bbcp+1, -0x1.4a8876p+1,  0x1.6b5d3cp-3,  0x1.a8c720p+0,
    -0x1.98eab6p-5, -0x1.6c5b94p+1, -0x1.01a4ecp+1, -0x1.b98d42p-1,
     0x1.1a9430p+1,  0x1.d35ea4p-1,  0x1.166130p+0,  0x1.e109eap+0,
     0x1.660eb8p-1,  0x1.0c24f2p-1,  0x1.3bfedep+0,  0x1.aa66cap+0,
     0x1.29779ap+1,  0x1.1d4548p-1,  0x1.f11720p-1,  0x1.107100p+1,
     0x1.190a16p+1,  0x1.4f3406p+1,  0x1.55930ap+1,  0x1.144af4p+1,
     0x1.1f009ep+0, -0x1.f63166p-4,  0x1.d32a96p-13, 0x1.341af0p+0,
     0x1.d747c2p-2,  0x1.625832p-3,  0x1.d3ff7ap-2,  0x1.f54acap-5,
     0x1.b69140p-2, -0x1.aeb7b0p+0, -0x1.cf5b0ep+0,  0x1.3d5f14p-1,
     0x1.db4f5ap-5, -0x1.12c8cap-1, -0x1.833f42p-1, -0x1.59e9bap-1,
    -0x1.06cdaep+2, -0x1.ef4dfcp+1, -0x1.e80a94p-1,  0x1.575b42p-1,
    -0x1.6e796cp-2, -0x1.406366p+1, -0x1.a7ba16p+0, -0x1.2b197ep+0,
    -0x1.670c2ap+1, -0x1.6e06a4p+1,  0x1.e72d50p-14, 0x1.1b5e00p+0,
     0x1.01ddf0p-2, -0x1.6ce8fcp+1, -0x1.f2c796p+0, -0x1.610caap-1,
     0x1.131998p+1,  0x1.8663b8p-1,  0x1.496fdcp+0,  0x1.f4b420p+0,
     0x1.399062p-1,  0x1.6a76a0p-2,  0x1.28b1f6p+0,  0x1.43bc78p+0,
     0x1.244074p+1,  0x1.b764ecp-2,  0x1.e7484cp-1,  0x1.083a96p+1,
     0x1.19a802p+1,  0x1.4466dcp+1,  0x1.569cdep+1,  0x1.0a377cp+1,
     0x1.1848c6p+0, -0x1.5a6be6p-3,  0x1.60441ap-5,  0x1.1e0f96p+0,
     0x1.1a793ap-1,  0x1.ba5820p-4,  0x1.0408e2p-1, -0x1.853264p-6,
     0x1.aa1520p-2, -0x1.cdb26ap+0, -0x1.ae21d4p+0,  0x1.bc96b0p-2,
     0x1.fe9d34p-3, -0x1.5d17bap-1, -0x1.41e88cp-1, -0x1.3fec86p-1,
    -0x1.01d6a4p+2, -0x1.c8ef40p+1, -0x1.3d3104p+0,  0x1.5c2928p-1,
    -0x1.43d0c4p-1, -0x1.4d2cc6p+1, -0x1.c7f004p+0, -0x1.2afdd8p+0,
    -0x1.703242p+1, -0x1.6958e2p+1,  0x1.755a0ap-5,  0x1.d38afap+0,
    -0x1.ea4076p-4, -0x1.3ae168p+1, -0x1.1ebf50p+1, -0x1.a4fa0ep-1,
     0x1.076b00p+1,  0x1.aefa5cp-1,  0x1.0a9d26p+0,  0x1.bd60fcp+0,
     0x1.8475fep-1,  0x1.c584e6p-2,  0x1.5e5890p+0,  0x1.5c7398p+0,
     0x1.203d3cp+1,  0x1.f36726p-2,  0x1.e02ad8p-1,  0x1.017180p+1,
     0x1.1549c0p+1,  0x1.450d00p+1,  0x1.49ae7ap+1,  0x1.0e9296p+1,
     0x1.0a8278p+0, -0x1.0fe9c6p-3, -0x1.6761a6p-4,  0x1.181356p+0,
     0x1.b46e00p-2,  0x1.ee5724p-3,  0x1.cd33f0p-2, -0x1.49a350p-3,
     0x1.444e44p-1, -0x1.a3b40cp+0, -0x1.9e495cp+0,  0x1.b46f98p-1,
     0x1.4e9808p-2, -0x1.c84774p-1, -0x1.54d22cp-2, -0x1.3dc902p-1,
    -0x1.1155a0p+2, -0x1.b3d4bcp+1, -0x1.8335f8p+0,  0x1.58d39ap-2,
    -0x1.2367d4p-2, -0x1.59e3f6p+1, -0x1.aa2c2ep+0, -0x1.423386p+0,
    -0x1.63ba66p+1, -0x1.8ea2eap+1,  0x1.8c0c16p-3,  0x1.adc744p+0,
    -0x1.bf86c6p-4, -0x1.3f0e6ap+1, -0x1.f5b1b8p+0, -0x1.20292ap-1,
     0x1.1490eap+1,  0x1.e03072p-1,  0x1.02feecp+0,  0x1.ed0510p+0,
     0x1.2d99f2p-1,  0x1.3c0c8ep-2,  0x1.64129ep+0,  0x1.21c49ep+0,
     0x1.1dca7ep+1,  0x1.3c88bep-1,  0x1.8ebf2ap-1,  0x1.1c4040p+1,
     0x1.20d8acp+1,  0x1.25245cp+1,  0x1.6cb6ecp+1,  0x1.06c190p+1,
     0x1.1d50f8p+0, -0x1.23862cp-3, -0x1.de8790p-10, 0x1.257fb0p+0,
     0x1.2a55a2p-1,  0x1.a6949ep-6,  0x1.006c78p-1,  0x1.39ed6cp-6,
     0x1.0e270ap-1, -0x1.d33086p+0, -0x1.c48dbep+0,  0x1.2e7f60p-2,
     0x1.a66240p-4, -0x1.9de92ep-1, -0x1.6a63aap-1, -0x1.6f825ap-1,
    -0x1.deed7cp+1, -0x1.c7c654p+1, -0x1.3269b4p-2,  0x1.6a6b9ep+0,
    -0x1.294d28p-2, -0x1.2b7254p+1, -0x1.bb2e68p+0, -0x1.02f0a2p+0,
    -0x1.85d286p+1, -0x1.653ba2p+1, -0x1.9055dep-3,  0x1.00019cp+1,
    -0x1.a491a2p-3, -0x1.626cdap+1, -0x1.0b4300p+1, -0x1.879596p-1,
     0x1.0560e6p+1,  0x1.b899f0p-1,  0x1.0e9fcep+0,  0x1.921a7ap+0,
     0x1.57dfa8p-1,  0x1.bab070p-3,  0x1.4320fep+0,  0x1.2a9e2ep+0,
     0x1.1ef548p+1,  0x1.d56e60p-2,  0x1.ea8f42p-1,  0x1.f94b2cp+0,
