#include "nnedi.h"

ALIGNED_16(const float test_weights[252]) = {
    -0x1.912c80p-1,  0x1.ca1e40p-4, -0x1.2b7750p-6,  0x1.cb7c68p-2,
    -0x1.3ae404p-1, -0x1.6c6b48p-2, -0x1.a878d6p-2, -0x1.09ed74p-7,
    -0x1.9e25a0p-1, -0x1.cd560cp-1,  0x1.f0251ep-1,  0x1.f57664p-2,
     0x1.6e13bcp-1, -0x1.7d9f54p-1,  0x1.716e10p-5,  0x1.7602b6p-1,
     0x1.d6575cp-1,  0x1.6e48eep+1,  0x1.8f652ep-1,  0x1.a0058ep-1,
     0x1.289e82p-7,  0x1.fee69ep-4, -0x1.5f8288p-2, -0x1.a23676p-2,
    -0x1.f11f5ap-3, -0x1.945edap-3, -0x1.51fb42p-1, -0x1.b86414p-4,
    -0x1.1cd914p-2, -0x1.b60a9ap-1, -0x1.3d99dcp+0, -0x1.bc671ap-1,
    -0x1.1e8f46p+0, -0x1.e978d8p-2, -0x1.614502p-6, -0x1.9b0b84p+0,
     0x1.0df5f6p-2, -0x1.310812p+0, -0x1.bbb18cp-1,  0x1.2b503ap-3,
     0x1.071ffep-2, -0x1.c7495ap-2,  0x1.2838f8p-1, -0x1.2cb73ap-1,
    -0x1.0a2368p-1,  0x1.e2566cp-1,  0x1.005a52p+0, -0x1.040a88p-3,
    -0x1.e7c5dep-1,  0x1.80ad66p-4, -0x1.aa432ap-1, -0x1.c6478ep+0,
    -0x1.658cb6p-2, -0x1.d1517ep-3, -0x1.79b8c0p-2,  0x1.213ec4p-3,
    -0x1.cfe0b4p-2, -0x1.095a8cp-2,  0x1.62915cp-5,  0x1.674cbap-1,
     0x1.1faf48p-1,  0x1.2c0d72p-1,  0x1.d44f4cp-3,  0x1.d88792p+0,
     0x1.2d7e3cp-1,  0x1.c71d5ap-1,  0x1.94d97cp-1,  0x1.c48880p-2,
     0x1.9b8786p-1, -0x1.91ad3cp-3,  0x1.7d5c4ap-4,  0x1.9bd84cp-4,
    -0x1.96333cp-4,  0x1.8ffb4ep-2, -0x1.2871c2p-1, -0x1.0e0284p-3,
     0x1.babec0p-1,  0x1.164af8p-1, -0x1.aa6efep-1, -0x1.35d9c6p-2,
     0x1.2e83e6p-2, -0x1.0fe7d2p-2,  0x1.8dd00ep-1, -0x1.4254a2p-1,
     0x1.b31bc8p-2,  0x1.4ede22p-5,  0x1.abea98p-1,  0x1.791244p-4,
    -0x1.3b53eap+0, -0x1.1dc840p+0,  0x1.4e7832p-1,  0x1.67d0eap-1,
     0x1.47e5b6p-3, -0x1.f8f550p-1,  0x1.cd43d2p-2, -0x1.42d1dap-4,
    -0x1.4f42d0p-3, -0x1.f8f43ep-4, -0x1.cbccdep-1,  0x1.21f452p-5,
    -0x1.4f2f54p-4, -0x1.2a12f2p-1,  0x1.2a9964p-2, -0x1.08b7e4p-1,
     0x1.1559aep+0,  0x1.140e28p-3, -0x1.b2726cp-2,  0x1.e25706p-3,
    -0x1.30287ap-3, -0x1.cbe7b4p-2,  0x1.a4c5dep-1, -0x1.9b606ap-1,
    -0x1.2c32cep-1, -0x1.03e18ap+0,  0x1.48f202p-6, -0x1.bfb766p-1,
    -0x1.92dfb4p-3, -0x1.d96ba8p-2,  0x1.17f064p-1,  0x1.c71212p-3,
     0x1.b3e4e4p-1,  0x1.94feb6p+0,  0x1.8c7994p+0,  0x1.444146p-1,
     0x1.233cf6p-1,  0x1.90119cp+0,  0x1.436ab6p+0,  0x1.45a78ap-4,
     0x1.40e65cp-2,  0x1.3cf3e0p-1, -0x1.4fe132p-2,  0x1.299f2ep-3,
    -0x1.fa312cp-3, -0x1.0cec44p+0, -0x1.6512f4p-2, -0x1.65a7ecp-2,
    -0x1.87a7bep-1,  0x1.82fd06p-3, -0x1.b82ab8p-3,  0x1.be0d9cp-1,
    -0x1.e6c0aep-3, -0x1.e78c10p-2, -0x1.5a3b18p-1,  0x1.79b1d6p-2,
    -0x1.f6c20ap-2,  0x1.e7be8cp-3,  0x1.7958acp-3,  0x1.46844ep-3,
     0x1.f2557ep-1, -0x1.0d3860p-2,  0x1.877228p-2, -0x1.e4235cp-3,
     0x1.256f7ap-2,  0x1.911684p-2, -0x1.72593ep+0, -0x1.06ee52p-1,
    -0x1.3adf2ap-2,  0x1.3e7c00p-3, -0x1.b25516p-1, -0x1.c92422p-4,
    -0x1.e3091ap+0,  0x1.8d08b0p-5,  0x1.9cb7a0p-2, -0x1.2e47aap-2,
     0x1.004fa4p-3,  0x1.22f6b4p-2, -0x1.fcecfap-3,  0x1.237fbep-1,
    -0x1.908feep-1, -0x1.5c4b4ap-1, -0x1.8956d6p+0, -0x1.5a2f6cp-1,
    -0x1.db73dcp-2, -0x1.564accp+0, -0x1.2fbdb4p+0,  0x1.ad8e4cp-1,
     0x1.8dde56p-2, -0x1.14eafcp+0,  0x1.993e6ep-1, -0x1.1927f2p-3,
     0x1.5d344cp-1,  0x1.7b5f7ep+0,  0x1.ddd572p-1,  0x1.b17562p+0,
    -0x1.505fbcp-1,  0x1.5a062ep-3, -0x1.558a54p-1, -0x1.f4b5fcp-4,
     0x1.0ac116p+0,  0x1.13a84cp-1, -0x1.cefca4p-1, -0x1.2d281ap-2,
     0x1.83aea8p-1,  0x1.b39084p-2, -0x1.cd129ep-4, -0x1.87eb7ap-1,
    -0x1.d58256p-3,  0x1.ac564ep+0, -0x1.a03592p-1, -0x1.dee132p-1,
    -0x1.2164dap-3,  0x1.1fbce4p-1, -0x1.4150f8p-2, -0x1.38e122p+0,
     0x1.4c06e0p-12, 0x1.152e30p-5,  0x1.c36b44p+0, -0x1.4187acp-1,
    -0x1.486978p-1,  0x1.fd2bd8p-1, -0x1.336f98p-2,  0x1.f56744p-5,
    -0x1.25ae1ep+0,  0x1.053b2cp-3,  0x1.8b804cp-1,  0x1.14033ap+0,
     0x1.13cca2p-1, -0x1.87eb94p-2, -0x1.d2ceaep-2,  0x1.d91378p-4,
    -0x1.606034p+0,  0x1.46afd0p-1,  0x1.48168ep+0,  0x1.37c452p+0,
     0x1.87326cp-3, -0x1.60a680p-3,  0x1.3d84c8p-3,  0x1.088b06p-1,
    -0x1.117408p-1,  0x1.472d6ep+0, -0x1.9a5798p-3, -0x1.9fdaecp-1,
     0x1.1a6b1cp-1, -0x1.3d7e80p+0,  0x1.31014ap-1,  0x1.4c99f2p-1,
    -0x1.82f0dap-4,  0x1.4f5c4cp-1,  0x1.e99c70p-3,  0x1.2e5d74p-2,
    -0x1.c1d9bap-3, -0x1.391dc2p-2,  0x1.468136p-2,  0x1.ca0386p-3,
     0x1.129c88p-1, -0x1.2aaf22p+0, -0x1.241b86p-1,  0x1.2fc928p+0,
     0x1.a2814cp-3,  0x1.7f4b80p-1,  0x1.f7d9e6p+0,  0x1.d642e2p-3,
};

ALIGNED_16(const float scale_weights_8x6x16[49*32]) = {
     0x1.c3c812p+1,  0x1.b258e8p+1,  0x1.19cdb2p+2,  0x1.61f238p+2,
     0x1.41bc30p+2,  0x1.2f12f8p+2,  0x1.41569ep+2,  0x1.29745cp+2,
    -0x1.cd9d60p+2, -0x1.01f030p+3, -0x1.94a514p+2, -0x1.22dd5ap+2,
    -0x1.a48794p+2, -0x1.f5e814p+2, -0x1.f3b570p+2, -0x1.b0965ep+2,
    -0x1.340336p+2, -0x1.970d06p+2, -0x1.e48af4p+1, -0x1.987e46p-3,
     0x1.89147ep-1, -0x1.9e3122p+0, -0x1.27842cp-1,  0x1.0dff46p+1,
    -0x1.2c048cp+2, -0x1.012388p+2, -0x1.e2a04ep-4,  0x1.bcf12ep-1,
    -0x1.d427b2p+0, -0x1.29ad18p+2, -0x1.4a4f66p+2, -0x1.91f32cp+1,
     0x1.596e58p+0,  0x1.ec8a9cp-1,  0x1.e44290p-1,  0x1.cc3ea6p+0,
     0x1.21967ep-2, -0x1.be8bbep-3,  0x1.24ef5ap-2,  0x1.cd3e10p-3,
     0x1.43f7dap+2,  0x1.3f737ap+2,  0x1.62d5d6p+2,  0x1.85fbbap+2,
     0x1.8322ecp+2,  0x1.9dae48p+2,  0x1.7a94c4p+2,  0x1.3b51bep+2,
     0x1.e84dc2p+1,  0x1.d322d6p+1,  0x1.29e2f2p+2,  0x1.711ca0p+2,
     0x1.51742ap+2,  0x1.3a8f22p+2,  0x1.4f87d2p+2,  0x1.372b1cp+2,
    -0x1.c027c6p+2, -0x1.fe63cep+2, -0x1.9547a0p+2, -0x1.1b891cp+2,
    -0x1.90e72ep+2, -0x1.e5e19cp+2, -0x1.e139ecp+2, -0x1.a24542p+2,
    -0x1.2c22c2p+2, -0x1.8609a8p+2, -0x1.836764p+1, -0x1.bf38c2p-3,
     0x1.357728p-2, -0x1.ac5278p+0, -0x1.fa0a36p-2,  0x1.13fa4cp+1,
    -0x1.2223c0p+2, -0x1.db4cccp+1, -0x1.377d70p-2,  0x1.877a9ep+0,
    -0x1.d05ecap-1, -0x1.1a241ep+2, -0x1.36cd5cp+2, -0x1.61cc9cp+1,
     0x1.b3c7a8p+0,  0x1.443dbap+0,  0x1.44d644p+0,  0x1.095120p+1,
     0x1.e2caa4p-2,  0x1.0439a4p-8,  0x1.09b276p-1,  0x1.d19d44p-2,
     0x1.55cff8p+2,  0x1.4b9240p+2,  0x1.705d32p+2,  0x1.958860p+2,
     0x1.91f024p+2,  0x1.ae3286p+2,  0x1.8a2a1cp+2,  0x1.4adbaap+2,
     0x1.d218dap+1,  0x1.c4ea7cp+1,  0x1.1e5fa6p+2,  0x1.6b38e4p+2,
     0x1.4a22d0p+2,  0x1.31fb3ep+2,  0x1.481a24p+2,  0x1.2d699ep+2,
    -0x1.cbcf56p+2, -0x1.03674cp+3, -0x1.a4d1ecp+2, -0x1.25cd7cp+2,
    -0x1.9d68a8p+2, -0x1.ecca08p+2, -0x1.ec73fap+2, -0x1.a11afep+2,
    -0x1.32e31ap+2, -0x1.8f5d12p+2, -0x1.7668c8p+1,  0x1.813078p-2,
     0x1.55b47ap-1, -0x1.6484dcp+0, -0x1.13f600p-1,  0x1.261594p+1,
    -0x1.13371ep+2, -0x1.d171fep+1, -0x1.040ff2p-8,  0x1.8aa85cp+0,
    -0x1.3c2b4ep+0, -0x1.3a09cap+2, -0x1.45bf52p+2, -0x1.a18702p+1,
     0x1.86876ep+0,  0x1.fa94aep-1,  0x1.e11d12p-1,  0x1.b8f62ap+0,
     0x1.242a2ep-2, -0x1.257dbep-2,  0x1.7148a8p-2,  0x1.787226p-3,
     0x1.468782p+2,  0x1.44e95ap+2,  0x1.662070p+2,  0x1.8c9dd8p+2,
     0x1.86cd26p+2,  0x1.a78d16p+2,  0x1.7f4c22p+2,  0x1.443b2ep+2,
     0x1.dbec56p+1,  0x1.b45594p+1,  0x1.2698e6p+2,  0x1.667dc0p+2,
     0x1.47aaacp+2,  0x1.3a4092p+2,  0x1.435366p+2,  0x1.32b95ap+2,
    -0x1.c58f08p+2, -0x1.032b40p+3, -0x1.969a68p+2, -0x1.29eca8p+2,
    -0x1.9ece06p+2, -0x1.f1f55ep+2, -0x1.ee01b8p+2, -0x1.a91980p+2,
    -0x1.33a696p+2, -0x1.8f69fcp+2, -0x1.af4be2p+1,  0x1.04e24ep-4,
     0x1.4dbe32p-1, -0x1.7579cep+0, -0x1.d43856p-2,  0x1.219b62p+1,
    -0x1.1cb9f8p+2, -0x1.df0788p+1, -0x1.a584acp-5,  0x1.391f90p+0,
    -0x1.3a52d0p+0, -0x1.243a32p+2, -0x1.47160ap+2, -0x1.888c1ep+1,
     0x1.84a440p+0,  0x1.ecfbb4p-1,  0x1.483b68p+0,  0x1.017602p+1,
     0x1.779e2cp-2, -0x1.32e592p-4,  0x1.3e5c0ap-2,  0x1.5913e6p-2,
     0x1.468962p+2,  0x1.488b2ep+2,  0x1.62029ep+2,  0x1.89e2d6p+2,
     0x1.87d326p+2,  0x1.a213bcp+2,  0x1.8285bep+2,  0x1.4021f0p+2,
     0x1.cc8b74p+1,  0x1.bb4ff8p+1,  0x1.1ee540p+2,  0x1.670a74p+2,
     0x1.445234p+2,  0x1.33bec2p+2,  0x1.41147ap+2,  0x1.2c1bdep+2,
    -0x1.c956f8p+2, -0x1.033618p+3, -0x1.9fbdbcp+2, -0x1.2dabb0p+2,
    -0x1.a65906p+2, -0x1.ef9b24p+2, -0x1.f0a064p+2, -0x1.a0fb8cp+2,
    -0x1.45825ap+2, -0x1.9cd934p+2, -0x1.d4e0c0p+1,  0x1.e54d64p-2,
     0x1.5f9322p-1, -0x1.9a7a84p+0, -0x1.154f6ap-1,  0x1.095e48p+1,
    -0x1.1b5c76p+2, -0x1.f1f4b0p+1, -0x1.dc570cp-8,  0x1.e12c68p+0,
    -0x1.73a224p+0, -0x1.3af456p+2, -0x1.4f3136p+2, -0x1.b1998cp+1,
     0x1.7ad9bcp+0,  0x1.f76356p-1,  0x1.0ef282p+0,  0x1.c09afap+0,
     0x1.2bc882p-2, -0x1.e008fcp-4,  0x1.4e95bap-2,  0x1.529460p-2,
     0x1.44b1fep+2,  0x1.434c8ep+2,  0x1.63b2d8p+2,  0x1.88eb86p+2,
     0x1.84a332p+2,  0x1.a33b1ap+2,  0x1.7d474ep+2,  0x1.3ed98cp+2,
     0x1.e2140ap+1,  0x1.c7aa76p+1,  0x1.26cdb0p+2,  0x1.6b3f72p+2,
     0x1.4dd31ep+2,  0x1.363374p+2,  0x1.4b0356p+2,  0x1.31f346p+2,
    -0x1.c94ea0p+2, -0x1.006ceep+3, -0x1.9b7a50p+2, -0x1.216ce2p+2,
    -0x1.98efc4p+2, -0x1.ea813ep+2, -0x1.ea61ccp+2, -0x1.a1ba00p+2,
    -0x1.2e68e0p+2, -0x1.971f8ep+2, -0x1.3c5c1ap+1,  0x1.026e06p-3,
     0x1.3a27f8p-1, -0x1.5d9478p+0, -0x1.f41e5ap-2,  0x1.2d5574p+1,
    -0x1.144a0ep+2, -0x1.dd7bf8p+1, -0x1.190972p-2,  0x1.5c9a26p+0,
    -0x1.21097ap-1, -0x1.2b08f2p+2, -0x1.3a0128p+2, -0x1.898200p+1,
     0x1.8ed0c4p+0,  0x1.1ac62cp+0,  0x1.38e5a0p+0,  0x1.db37e6p+0,
     0x1.350a48p-3, -0x1.b5c1e6p-3,  0x1.b182acp-2,  0x1.4f5a8ep-2,
     0x1.4a9054p+2,  0x1.47d6c0p+2,  0x1.68e128p+2,  0x1.8f3c18p+2,
     0x1.8b1a6ap+2,  0x1.ac8e76p+2,  0x1.81b4e2p+2,  0x1.47fdbep+2,
     0x1.cfee7ap+1,  0x1.c09714p+1,  0x1.1da44ep+2,  0x1.66abf6p+2,
     0x1.462c02p+2,  0x1.309430p+2,  0x1.45ace2p+2,  0x1.2bad50p+2,
    -0x1.ce06c2p+2, -0x1.03cca2p+3, -0x1.aa06e4p+2, -0x1.2b850ep+2,
    -0x1.a3dd08p+2, -0x1.f490eep+2, -0x1.f40a94p+2, -0x1.a98df2p+2,
    -0x1.2ce760p+2, -0x1.8fd26ap+2, -0x1.61e4dap+1, -0x1.b14eb8p-4,
     0x1.e4ffc6p-10,-0x1.98e79cp+0, -0x1.1f8ad6p-1,  0x1.15b72ap+1,
    -0x1.180d9cp+2, -0x1.e3822cp+1, -0x1.098346p-1,  0x1.9805bcp+0,
    -0x1.1f94c2p-1, -0x1.256eecp+2, -0x1.3f75f8p+2, -0x1.8b7f1cp+1,
     0x1.70ce1ep+0,  0x1.0635a2p+0,  0x1.1e07bap+0,  0x1.c2344ep+0,
     0x1.d05278p-3, -0x1.fbb854p-3,  0x1.7086d0p-2,  0x1.024336p-2,
     0x1.469f64p+2,  0x1.435594p+2,  0x1.62951ep+2,  0x1.890cb2p+2,
     0x1.882cd6p+2,  0x1.a56c2ep+2,  0x1.7f4346p+2,  0x1.422d3ap+2,
     0x1.d39736p+1,  0x1.ce1810p+1,  0x1.20ca94p+2,  0x1.6e338ap+2,
     0x1.4bcc2ep+2,  0x1.33faaep+2,  0x1.4b6bb6p+2,  0x1.2ebceep+2,
    -0x1.c5090cp+2, -0x1.01edbep+3, -0x1.a0725ep+2, -0x1.281254p+2,
    -0x1.9f47e4p+2, -0x1.e96fbap+2, -0x1.ebf478p+2, -0x1.9e5192p+2,
    -0x1.3334dap+2, -0x1.8e0ea6p+2, -0x1.8ecfa6p+1,  0x1.4b41e4p-3,
     0x1.310434p-1, -0x1.7349e8p+0, -0x1.dbe368p-2,  0x1.1ac612p+1,
    -0x1.197976p+2, -0x1.daa25ap+1, -0x1.c612a0p-4,  0x1.a0a728p+0,
    -0x1.271344p+0, -0x1.2d2ee6p+2, -0x1.4367d8p+2, -0x1.92d8f2p+1,
     0x1.7f4f5ap+0,  0x1.13d806p+0,  0x1.02ba8ep+0,  0x1.c09278p+0,
     0x1.73080ap-2, -0x1.53087cp-3,  0x1.c11798p-2,  0x1.38db92p-2,
     0x1.4cde56p+2,  0x1.477dbap+2,  0x1.6bbdf8p+2,  0x1.9027eap+2,
     0x1.8950dcp+2,  0x1.ab1d7cp+2,  0x1.822a76p+2,  0x1.462e26p+2,
     0x1.b33d78p+1,  0x1.a04566p+1,  0x1.110c58p+2,  0x1.575e7ep+2,
     0x1.382f84p+2,  0x1.21fc5ap+2,  0x1.35d6dap+2,  0x1.1cb9bcp+2,
    -0x1.da4878p+2, -0x1.0bcd6ap+3, -0x1.b1527ep+2, -0x1.3f6926p+2,
    -0x1.b16180p+2, -0x1.fd93fep+2, -0x1.ff6feep+2, -0x1.b52c42p+2,
    -0x1.4530b2p+2, -0x1.a7212ap+2, -0x1.97be5ep+1,  0x1.45203cp-2,
     0x1.4edd26p-2, -0x1.c3f8bep+0, -0x1.8d06dcp-1,  0x1.efd124p+0,
    -0x1.2ddd14p+2, -0x1.026784p+2, -0x1.3ea424p-2,  0x1.c8a7d0p+0,
    -0x1.179920p+0, -0x1.3d333ap+2, -0x1.5410b2p+2, -0x1.b24f5ap+1,
     0x1.35620ap+0,  0x1.93e3e8p-1,  0x1.af795cp-1,  0x1.7cfdaep+0,
    -0x1.1ecfb2p-6, -0x1.d7cae2p-2,  0x1.a90352p-4, -0x1.d0db60p-7,
     0x1.3814f6p+2,  0x1.350e66p+2,  0x1.55c4b6p+2,  0x1.7b4580p+2,
     0x1.766264p+2,  0x1.97f888p+2,  0x1.6ef318p+2,  0x1.33af80p+2,
     0x1.e7b33ap+1,  0x1.d3eba4p+1,  0x1.2a6b04p+2,  0x1.709818p+2,
     0x1.52aadap+2,  0x1.3b85f2p+2,  0x1.515ef0p+2,  0x1.35d712p+2,
    -0x1.c409aap+2, -0x1.005432p+3, -0x1.97e862p+2, -0x1.196e72p+2,
    -0x1.962312p+2, -0x1.ec7c16p+2, -0x1.eab010p+2, -0x1.a3f332p+2,
    -0x1.198768p+2, -0x1.813c36p+2, -0x1.42ab06p+1, -0x1.a722d2p-3,
     0x1.5e81bep-5, -0x1.57df1ep+0, -0x1.a92254p-2,  0x1.372ff4p+1,
    -0x1.169c78p+2, -0x1.d1fa1cp+1, -0x1.6b2c16p-1,  0x1.4b6b82p+0,
    -0x1.fe1034p-2, -0x1.179310p+2, -0x1.34b6e6p+2, -0x1.67c15ep+1,
     0x1.719b4ap+0,  0x1.1fb674p+0,  0x1.3c6dcap+0,  0x1.027eb4p+1,
     0x1.c4775ep-2, -0x1.dbd8f4p-4,  0x1.e909b2p-2,  0x1.85111ap-2,
     0x1.52addcp+2,  0x1.4d7b7cp+2,  0x1.6f6d52p+2,  0x1.91bef2p+2,
     0x1.92c2a2p+2,  0x1.aee1bap+2,  0x1.8a2ed4p+2,  0x1.4a66b8p+2,
     0x1.d74ea4p+1,  0x1.b934e6p+1,  0x1.2417f2p+2,  0x1.6637b2p+2,
     0x1.47ea76p+2,  0x1.372daep+2,  0x1.448e7ep+2,  0x1.309334p+2,
    -0x1.c5d098p+2, -0x1.042330p+3, -0x1.98c068p+2, -0x1.2b6beap+2,
    -0x1.9f6a52p+2, -0x1.f07932p+2, -0x1.eee03cp+2, -0x1.a7141ap+2,
    -0x1.34320ep+2, -0x1.909bfcp+2, -0x1.b252dep+1,  0x1.6e1d8ep-5,
     0x1.4e1444p-1, -0x1.77ba4ep+0, -0x1.e3574ap-2,  0x1.1cf808p+1,
    -0x1.1e260ep+2, -0x1.e0eaa6p+1, -0x1.07a1bep-4,  0x1.3ecb88p+0,
    -0x1.4b1aa6p+0, -0x1.27825ap+2, -0x1.47f908p+2, -0x1.8dc7e0p+1,
     0x1.800c0ap+0,  0x1.ff0fb8p-1,  0x1.3d2530p+0,  0x1.f155fep+0,
     0x1.7db01ep-2, -0x1.dd4ae2p-4,  0x1.52bbe2p-2,  0x1.309492p-2,
     0x1.479014p+2,  0x1.45b104p+2,  0x1.6448d2p+2,  0x1.89390cp+2,
     0x1.879c1cp+2,  0x1.a407d0p+2,  0x1.8104d6p+2,  0x1.412b24p+2,
     0x1.d20086p+1,  0x1.b43fd8p+1,  0x1.1fd61cp+2,  0x1.626576p+2,
     0x1.44b89cp+2,  0x1.328460p+2,  0x1.42e7d8p+2,  0x1.2a7620p+2,
    -0x1.d2555ep+2, -0x1.057974p+3, -0x1.9f6cfap+2, -0x1.2bdc7ep+2,
    -0x1.ad43d2p+2, -0x1.f83618p+2, -0x1.f07104p+2, -0x1.aa90a8p+2,
    -0x1.44c520p+2, -0x1.9b325ep+2, -0x1.d94294p+1, -0x1.c0f660p-3,
     0x1.417a4cp-1, -0x1.28956cp+0, -0x1.71db24p-2,  0x1.3392b6p+1,
    -0x1.0e9f04p+2, -0x1.df2da8p+1,  0x1.08ad96p-4,  0x1.9e92fep+0,
    -0x1.fedfb4p-1, -0x1.23c13cp+2, -0x1.416a62p+2, -0x1.8bf722p+1,
     0x1.71a55ep+0,  0x1.e97ffep-1,  0x1.2d9598p+0,  0x1.d17782p+0,
     0x1.ea4e04p-3, -0x1.12be2ep-2,  0x1.243a7ap-2,  0x1.3fd21ep-3,
     0x1.4684d8p+2,  0x1.43a820p+2,  0x1.630ea0p+2,  0x1.8710dap+2,
     0x1.842c54p+2,  0x1.a1a70ap+2,  0x1.7e797cp+2,  0x1.400128p+2,
     0x1.dc53eap+1,  0x1.cb68aap+1,  0x1.253c62p+2,  0x1.6c6d90p+2,
     0x1.4f709cp+2,  0x1.380d90p+2,  0x1.4cf88ap+2,  0x1.33c70ap+2,
    -0x1.c86c70p+2, -0x1.01e172p+3, -0x1.962ba2p+2, -0x1.216eecp+2,
    -0x1.981602p+2, -0x1.e80912p+2, -0x1.e92514p+2, -0x1.9f271ap+2,
    -0x1.299748p+2, -0x1.8baf4cp+2, -0x1.cb6fe8p+1, -0x1.6c9b1ep-5,
     0x1.9a4b5ep-1, -0x1.717752p+0, -0x1.a5e7e8p-2,  0x1.20c5a8p+1,
    -0x1.13a612p+2, -0x1.d29c88p+1,  0x1.678d76p-3,  0x1.649334p+0,
    -0x1.9abed4p+0, -0x1.24b966p+2, -0x1.400a90p+2, -0x1.7d13c8p+1,
     0x1.83d2eep+0,  0x1.18c470p+0,  0x1.316e26p+0,  0x1.019e56p+1,
     0x1.1575bep-1, -0x1.605d34p-4,  0x1.ad74c2p-2,  0x1.47d1dap-2,
     0x1.4f165ap+2,  0x1.497bb4p+2,  0x1.6d22e8p+2,  0x1.8e6538p+2,
     0x1.8d89d6p+2,  0x1.aae3a4p+2,  0x1.862278p+2,  0x1.466e08p+2,
     0x1.eaa5a6p+1,  0x1.e1507cp+1,  0x1.2cf2f2p+2,  0x1.78c54cp+2,
     0x1.56a4c4p+2,  0x1.413690p+2,  0x1.5751d0p+2,  0x1.3c9aaap+2,
    -0x1.b40b5ep+2, -0x1.f74156p+2, -0x1.8b3c20p+2, -0x1.0d7f04p+2,
    -0x1.8d29dap+2, -0x1.db0552p+2, -0x1.def07cp+2, -0x1.95bdb6p+2,
    -0x1.15d7a4p+2, -0x1.7d124cp+2, -0x1.692fb0p+1,  0x1.91fd4cp-4,
     0x1.b58a7cp-2, -0x1.6c02aep+0, -0x1.8a3396p-2,  0x1.273f9ep+1,
    -0x1.2351a2p+2, -0x1.d6866ep+1, -0x1.ad7458p-2,  0x1.6dc0eap+0,
    -0x1.d3ec0ep-1, -0x1.1addcap+2, -0x1.369c04p+2, -0x1.6ca7ecp+1,
     0x1.a4be8cp+0,  0x1.511ab6p+0,  0x1.543966p+0,  0x1.0ec216p+1,
     0x1.2916dep-1,  0x1.55272ep-6,  0x1.384f38p-1,  0x1.d4329cp-2,
     0x1.57d57ep+2,  0x1.514f7ep+2,  0x1.7634aep+2,  0x1.9969d4p+2,
     0x1.96dd1cp+2,  0x1.b6d310p+2,  0x1.8f1272p+2,  0x1.512bc6p+2,
     0x1.d6f8cap+1,  0x1.c33798p+1,  0x1.230be2p+2,  0x1.65319ap+2,
     0x1.4b2a14p+2,  0x1.314cd2p+2,  0x1.4840b2p+2,  0x1.2f5402p+2,
    -0x1.c7eeb6p+2, -0x1.043536p+3, -0x1.9b9db8p+2, -0x1.182b90p+2,
    -0x1.9af04cp+2, -0x1.e70bdep+2, -0x1.ee35aep+2, -0x1.a0cea4p+2,
    -0x1.273986p+2, -0x1.8b6a5ap+2, -0x1.87d9e2p+1, -0x1.ca03bap-1,
     0x1.b92ecep-2, -0x1.7fb648p+0, -0x1.13871ap-1,  0x1.18a44ap+1,
    -0x1.1edb4ap+2, -0x1.df0c18p+1, -0x1.007ffap-3,  0x1.739850p-1,
    -0x1.dd2f32p-1, -0x1.23a624p+2, -0x1.4002dap+2, -0x1.851d26p+1,
     0x1.7b8026p+0,  0x1.1eeee0p+0,  0x1.2c9874p+0,  0x1.00554ep+1,
     0x1.2a90eap-2, -0x1.4aaeb0p-3,  0x1.5e56a0p-2,  0x1.14b3b6p-2,
     0x1.4b4732p+2,  0x1.402ad8p+2,  0x1.68fde8p+2,  0x1.8ab566p+2,
     0x1.8a18dap+2,  0x1.a9abccp+2,  0x1.810e84p+2,  0x1.4443c2p+2,
     0x1.e1bce6p+1,  0x1.cbbb7ep+1,  0x1.26534cp+2,  0x1.6fae1cp+2,
     0x1.4d4b4cp+2,  0x1.3afa68p+2,  0x1.4b1ffcp+2,  0x1.344ac0p+2,
    -0x1.b69812p+2, -0x1.fb3e1ep+2, -0x1.917becp+2, -0x1.1f67ccp+2,
    -0x1.9bc9f2p+2, -0x1.e38f7cp+2, -0x1.e6ea4cp+2, -0x1.96fa7ep+2,
    -0x1.49e09cp+2, -0x1.96fce4p+2, -0x1.c22206p+1,  0x1.c2430cp-2,
     0x1.7fa0bcp-1, -0x1.52db4ap+0, -0x1.d86dbap-2,  0x1.2e673cp+1,
    -0x1.16dc86p+2, -0x1.da2cd2p+1,  0x1.44403ep-5,  0x1.a40dbep+0,
    -0x1.64c520p+0, -0x1.411fb8p+2, -0x1.4ce224p+2, -0x1.a845dap+1,
     0x1.9e5a42p+0,  0x1.1effc4p+0,  0x1.2f74b8p+0,  0x1.e89192p+0,
     0x1.cf002ep-2, -0x1.ec5ee6p-6,  0x1.021edap-1,  0x1.48770ep-2,
     0x1.4fa4e0p+2,  0x1.498ddep+2,  0x1.6cddbcp+2,  0x1.927694p+2,
     0x1.8b410ep+2,  0x1.adcd14p+2,  0x1.84118ep+2,  0x1.47a52ap+2,
    -0x1.7ba136p-5, -0x1.a9e424p-7, -0x1.03faf0p-4,  0x1.f3c9b0p-6,
     0x1.71e43cp-6, -0x1.e5a162p-7,  0x1.f9b880p-6,  0x1.bf30fcp-6,
     0x1.e816b4p-4,  0x1.07dcecp-6, -0x1.1c6df0p-9,  0x1.7402a8p-5,
    -0x1.b9e2d8p-6,  0x1.fd5c92p-7,  0x1.cdcf96p-5, -0x1.2be4bcp-7,
     0x1.f47d98p-5,  0x1.22fcecp-4, -0x1.878824p-6, -0x1.6209a6p-2,
     0x1.ad4ae4p-6, -0x1.a2d0ccp-2, -0x1.9bb3f2p-4, -0x1.b860aep-3,
     0x1.522eb0p-6, -0x1.06e6a0p-5,  0x1.5df882p-2,  0x1.ac0500p-2,
    -0x1.a5d4eep-5, -0x1.f14700p-5, -0x1.52a926p-5,  0x1.3996c6p-5,
    -0x1.7703a6p-4,  0x1.536c60p-5, -0x1.0e1452p-2,  0x1.14d898p-3,
     0x1.4a87aep-3,  0x1.a4a332p-4,  0x1.0874f2p-4,  0x1.988c8ap-7,
     0x1.ed40acp-7, -0x1.451370p-7, -0x1.3712eep-7, -0x1.5238bep-6,
    -0x1.39a81ep-6, -0x1.24cdc2p-6,  0x1.1395f2p-6, -0x1.806f46p-7,
     0x1.5bac28p-4, -0x1.2a9bccp-5, -0x1.142790p-5,  0x1.1c9a70p-4,
    -0x1.107552p-12, 0x1.3b1c7cp-6, -0x1.8b2704p-5,  0x1.f99058p-5,
    -0x1.3425b6p-1,  0x1.44ffe0p-3, -0x1.3ca69cp-4, -0x1.673c40p-9,
     0x1.33b7d6p-4, -0x1.beead2p-3,  0x1.89eaeap-4, -0x1.9bb0ccp-3,
     0x1.cae944p-4,  0x1.279ec8p-6, -0x1.025b94p-1,  0x1.281602p-3,
    -0x1.1f1bbap-2, -0x1.ab22f0p-7,  0x1.4c3c0ap-3, -0x1.4941fep-4,
     0x1.8c76cap-1,  0x1.1961a4p-3,  0x1.96f24ap-4,  0x1.09032ap+0,
     0x1.49c1f0p-7,  0x1.ce23c8p-8,  0x1.3e1b80p-2, -0x1.3713ecp-3,
    -0x1.dcc3c2p-2, -0x1.298d2ep-6, -0x1.2f0fb8p-2, -0x1.ff469cp-4,
    -0x1.8eaccap-6, -0x1.75fc40p-3, -0x1.eb3a88p-9, -0x1.6462fep-5,
    -0x1.29ccb6p-4,  0x1.e93656p-4, -0x1.752caep-4, -0x1.5c7c0ap-8,
     0x1.312034p-4, -0x1.320d26p-3,  0x1.954cc2p-4, -0x1.291290p-6,
    -0x1.a02496p-7, -0x1.d73d04p-6,  0x1.87c68cp-7,  0x1.0eed90p-9,
    -0x1.14558ep-8,  0x1.4f251ap-6, -0x1.2ed5d4p-6,  0x1.34416cp-6,
     0x1.4a90cap-5, -0x1.7f1aeap-9,  0x1.9f57c4p-6, -0x1.5ea666p-4,
    -0x1.ceff2ap-4, -0x1.4227fcp-5, -0x1.665380p-5, -0x1.c2637ap-6,
    -0x1.9335c4p-4,  0x1.08673cp-7, -0x1.59af92p-2,  0x1.1c29aap-4,
     0x1.28d294p-2, -0x1.2f0192p-4,  0x1.aced00p-5, -0x1.7c793ap-6,
     0x1.f53c78p-7, -0x1.13a0c8p-4,  0x1.5e0d52p-2,  0x1.6c25c0p-2,
    -0x1.d0be86p-3,  0x1.1cd7acp-4, -0x1.5962d4p-4,  0x1.a0bdb6p-5,
    -0x1.5c4f82p-4, -0x1.25f72ap-5, -0x1.fa679ep-4,  0x1.76da18p-7,
     0x1.5e5b80p-4,  0x1.4311c8p-5, -0x1.60bf3ep-6, -0x1.ab4020p-8,
     0x1.a22b78p-6,  0x1.00d600p-6,  0x1.c52ec2p-6,  0x1.37847ap-7,
    -0x1.5c0214p-6, -0x1.84ded4p-9,  0x1.05d9ccp-7, -0x1.7a663ep-6,
     0x1.4645e6p-10,-0x1.9ced36p-6,  0x1.4ec756p-5, -0x1.b9f0ccp-6,
     0x1.8c0732p-8, -0x1.312cf8p-6,  0x1.d4115ep-8, -0x1.ba3568p-6,
    -0x1.79f30cp-9, -0x1.05645cp-8, -0x1.6a7eaep-6,  0x1.b13fc6p-4,
     0x1.e09ddap-5, -0x1.68e244p-6,  0x1.dcfb82p-6, -0x1.0c4a56p-5,
    -0x1.0aeb30p-7, -0x1.0d87d6p-7, -0x1.6cd92ep-4, -0x1.4b3f0ap-3,
    -0x1.03d968p-3, -0x1.53945ep-5, -0x1.81ee44p-8,  0x1.00fbe2p-8,
    -0x1.bc11eap-6, -0x1.abc626p-4, -0x1.1ad42ap-1, -0x1.80e4bep+0,
    -0x1.3e753ep-2, -0x1.8cde2cp-6, -0x1.70162ap-5,  0x1.e42f62p-5,
     0x1.0dfe2cp-3,  0x1.873108p-4,  0x1.6d60eap-1,  0x1.d0cff2p+0,
     0x1.42532cp-2,  0x1.4bf87ep-4,  0x1.953d60p-6, -0x1.7fd800p-14,
    -0x1.000b86p-4, -0x1.7cc38ep-7, -0x1.f6e000p-4, -0x1.8715ccp-4,
     0x1.cc230ep-6, -0x1.0443c8p-4,  0x1.a32e52p-5, -0x1.725c2ap-5,
    -0x1.5b6460p-8,  0x1.20bf0ep-5, -0x1.3d03eep-5,  0x1.5c0696p-6,
     0x1.e26e10p-7, -0x1.7963dcp-5,  0x1.e8ca30p-6, -0x1.99fb36p-6,
     0x1.5373a2p-4, -0x1.5984c4p-5,  0x1.aba5b2p-10, 0x1.898c6ep-7,
    -0x1.6bd126p-5,  0x1.875020p-7,  0x1.066c74p-7, -0x1.f3f178p-6,
     0x1.a370dep-6,  0x1.02a82cp-4,  0x1.f20982p-4,  0x1.a685e6p-3,
     0x1.3a4662p-5,  0x1.6a4292p-6, -0x1.b32944p-5,  0x1.bea360p-5,
    -0x1.47280cp-3, -0x1.c9e89ep-8, -0x1.3dd0d2p-4,  0x1.5d219cp-4,
    -0x1.4a6c34p-6,  0x1.0bc0f8p-8, -0x1.4f0a72p-6,  0x1.8f78a4p-4,
    -0x1.f11244p-8,  0x1.186d7cp-7, -0x1.232afcp-4, -0x1.a3a7a6p-6,
    -0x1.493386p-5, -0x1.af4beap-4,  0x1.75ab2ap-8, -0x1.0130eep-3,
     0x1.4a9c3ap-6, -0x1.0916a2p-5,  0x1.f4fa84p-7,  0x1.a8297ep-6,
    -0x1.3660a6p-5,  0x1.2ffe4ep-5, -0x1.f4e7dep-7, -0x1.49dc84p-6,
    -0x1.29adeep-6,  0x1.4ea3dcp-6, -0x1.ded176p-6,  0x1.520278p-5,
     0x1.87eb78p-9, -0x1.a4f1c0p-6,  0x1.8c11b8p-5, -0x1.00a862p-5,
     0x1.4e0ed2p-5,  0x1.1220eep-5,  0x1.55032cp-4,  0x1.620700p-10,
     0x1.c80d56p-6,  0x1.f77074p-6, -0x1.3e9c92p-6, -0x1.243904p-6,
     0x1.45e870p-5,  0x1.646adep-5,  0x1.b7798ep-4,  0x1.7f938cp-2,
    -0x1.79b920p-4,  0x1.ce950ap-4, -0x1.c958bcp-7,  0x1.2178f4p-5,
    -0x1.338f38p-4,  0x1.e3d91ep-10,-0x1.f13c96p-2, -0x1.87ae74p-3,
    -0x1.50a06ap-3,  0x1.39fc44p-6,  0x1.e31436p-6, -0x1.a82b16p-10,
    -0x1.ac4a5ep-6,  0x1.a94b2cp-7,  0x1.756de0p-9,  0x1.d61ee2p-5,
    -0x1.232ecep-6,  0x1.9cfdb4p-6,  0x1.edc3d6p-6,  0x1.5bbcbep-5,
     0x1.59ad04p-6, -0x1.a66aaep-7,  0x1.e0f3f8p-7,  0x1.f64974p-8,
    -0x1.08def4p-5, -0x1.7fc24cp-7, -0x1.8438f4p-6, -0x1.2d0192p-6,
     0x1.a5ea94p-7, -0x1.14eb4ep-6,  0x1.55453cp-6, -0x1.fad14ep-7,
     0x1.450458p-5,  0x1.3c2842p-6,  0x1.01b6fcp-6,  0x1.9348c6p-5,
    -0x1.67b132p-4, -0x1.81db64p-6, -0x1.e9c43ep-5,  0x1.47c802p-9,
     0x1.081800p-5, -0x1.c33806p-7, -0x1.fa08d0p-5, -0x1.b5b166p-5,
     0x1.dfcc54p-3, -0x1.a0c87ep-5,  0x1.226726p-1,  0x1.611c94p-3,
     0x1.0eb424p-3, -0x1.8cbe12p-5, -0x1.6eefc2p-4, -0x1.071a4ap-4,
     0x1.c0a7b8p-6, -0x1.149926p-5, -0x1.1ffd02p-3, -0x1.3805d8p-2,
     0x1.43975ep-4, -0x1.1e0622p-4, -0x1.4ebe20p-5, -0x1.b2925cp-6,
    -0x1.6fac3ap-4, -0x1.e11118p-5, -0x1.852b6cp-4, -0x1.5d77dap-6,
    -0x1.cfc2a4p-6,  0x1.30318ap-5, -0x1.22cbaep-8,  0x1.a1c184p-5,
     0x1.9cdcf2p-7, -0x1.b4de24p-5,  0x1.7d8f1ep-5, -0x1.843e3cp-7,
     0x1.13f09cp-6,  0x1.00f370p-6, -0x1.9b40dcp-5,  0x1.1b2c52p-6,
    -0x1.95e550p-6,  0x1.4eecb8p-5, -0x1.6e72aap-6,  0x1.2a6cc2p-5,
    -0x1.f5d0eap-6,  0x1.000766p-8,  0x1.c95898p-6, -0x1.08fd82p-5,
     0x1.ef51aep-4,  0x1.fce694p-6, -0x1.ed8c68p-5,  0x1.7cee3ep-3,
     0x1.d1edd4p-4,  0x1.e990bcp-5,  0x1.e5fb02p-5,  0x1.5385bcp-5,
     0x1.82425ap-6,  0x1.86dd4cp-6,  0x1.1ec924p-2, -0x1.49ee9ap-4,
    -0x1.4a2d14p-1, -0x1.33632ap-4, -0x1.7afc40p-4,  0x1.372e26p-7,
    -0x1.ba20e2p-3, -0x1.58d17ep-6, -0x1.97af5ep-2,  0x1.a8b428p-4,
     0x1.093ba2p-2, -0x1.84007ap-4,  0x1.6a9192p-6,  0x1.f0f81ep-5,
    -0x1.a68accp-9,  0x1.68e04cp-5,  0x1.37b0c2p-6,  0x1.8b3ae4p-4,
     0x1.695860p-5,  0x1.93d24ap-6,  0x1.7f8da0p-6, -0x1.da55acp-6,
     0x1.178b44p-5,  0x1.4b48f8p-7, -0x1.5fcf44p-5,  0x1.b03e80p-5,
    -0x1.0602c8p-7,  0x1.534054p-8,  0x1.5a3ea8p-6, -0x1.14203ep-7,
     0x1.74d268p-7, -0x1.25fb0ep-2, -0x1.205e50p-5,  0x1.138a06p-2,
    -0x1.418966p-1,  0x1.c6dd32p-3, -0x1.003f8cp-2, -0x1.9d6d34p-2,
    -0x1.c85d76p-3, -0x1.1493fcp-11,-0x1.e15f56p-1, -0x1.256428p-1,
    -0x1.048f84p-1, -0x1.794b54p-3,  0x1.532400p-2, -0x1.aef086p-2,
    -0x1.01c6b6p-2, -0x1.19134ep-1,  0x1.118080p-1,  0x1.2445a0p+2,
     0x1.17fe54p+0, -0x1.3bbe7ep+0, -0x1.24d704p-4,  0x1.fdc9dcp-3,
    -0x1.806492p-1, -0x1.6f5bf0p+0,  0x1.25c01cp+0,  0x1.343b66p+2,
     0x1.5068f4p+0, -0x1.34746ap-1, -0x1.3f9d92p-1, -0x1.82f288p-2,
     0x1.dd86fap-3,  0x1.5bb574p-3, -0x1.128c68p-1, -0x1.81a5e4p-1,
    -0x1.72b97ep+0, -0x1.3ecd4cp-2, -0x1.0d6aaap-3, -0x1.3f27a6p-1,
    -0x1.378ce8p-1,  0x1.bd1f46p-2, -0x1.8096e6p-1,  0x1.1a3ac8p-4,
     0x1.bf147ep-4, -0x1.47a3dep-2,  0x1.40bc24p-2, -0x1.22d272p-3,
    -0x1.ef3df4p-7, -0x1.95ffdap-8,  0x1.26b1bep-7,  0x1.b616a2p-12,
     0x1.5e099ap-9,  0x1.f17562p-10,-0x1.68ba62p-7, -0x1.f22f42p-9,
     0x1.df8e50p-6, -0x1.3b18a2p-5,  0x1.3e8b5ep-8, -0x1.29a6b2p-7,
    -0x1.f15a5cp-6,  0x1.78bf72p-8, -0x1.721c0ep-9,  0x1.8a4abap-6,
     0x1.b94694p-5,  0x1.68060cp-5, -0x1.b1770ep-6,  0x1.c9eff6p-4,
     0x1.da97b2p-4, -0x1.771bdep-5,  0x1.03f8dap-9, -0x1.c4ef20p-5,
    -0x1.90890ep-4, -0x1.4646eap-5,  0x1.7b5296p-4,  0x1.a47e6ap-4,
    -0x1.b47decp-5,  0x1.76ae9cp-5, -0x1.6f5b44p-14, 0x1.581a86p-5,
    -0x1.01568ep-5, -0x1.4322e8p-5, -0x1.2c264ap-4, -0x1.3354a6p-5,
    -0x1.7d82f4p-7, -0x1.e9f2fep-8, -0x1.1a614cp-5,  0x1.408b4ep-7,
    -0x1.5d24b2p-10, 0x1.a06feep-10, 0x1.4d7d52p-7, -0x1.a6faa6p-10,
    -0x1.9cc806p-8, -0x1.7753a8p-7,  0x1.985ef0p-8, -0x1.b7a1d0p-6,
     0x1.914846p-9,  0x1.0f6152p-8, -0x1.05bec6p-6, -0x1.205018p-7,
     0x1.276ac0p-8,  0x1.2080a8p-10,-0x1.d60812p-8,  0x1.5fdf22p-6,
     0x1.716c12p-7, -0x1.a19f9cp-8,  0x1.e6b5aep-5, -0x1.3895d6p-5,
     0x1.77c450p-7,  0x1.01afa0p-6, -0x1.078414p-6,  0x1.273996p-6,
     0x1.8209aep-8,  0x1.9fe85ap-8, -0x1.94a9d0p-6, -0x1.526e96p-4,
    -0x1.f0ec26p-6,  0x1.3623dcp-8, -0x1.3142aap-7, -0x1.afc3c0p-6,
    -0x1.ad85ccp-11, 0x1.7a10d2p-4,  0x1.48a172p-2,  0x1.21a60ep+0,
     0x1.af1924p-3,  0x1.dfa466p-5,  0x1.3d52d6p-5, -0x1.c6e158p-8,
    -0x1.4fd330p-4, -0x1.47494ap-4, -0x1.90c880p-2, -0x1.206b62p+0,
    -0x1.536b5ep-3, -0x1.201cd2p-4, -0x1.199e02p-5, -0x1.41d7dap-12,
     0x1.d5eaa4p-6,  0x1.b11374p-10, 0x1.34b0a4p-4,  0x1.34a7aap-4,
    -0x1.05e97cp-6,  0x1.ea722cp-6, -0x1.ab8db2p-6,  0x1.a62e26p-7,
    -0x1.b600b4p-7,  0x1.54a708p-6, -0x1.a8d2dep-6,  0x1.faaab8p-6,
    -0x1.db93a8p-7, -0x1.63ce4cp-8,  0x1.108194p-14,-0x1.12e898p-14,
     0x1.551c50p-7,  0x1.098782p-5, -0x1.17bb54p-10,-0x1.e63b2ep-12,
    -0x1.519f86p-5, -0x1.e93f44p-6, -0x1.2f52b0p-6, -0x1.534ff2p-5,
     0x1.09b23cp-7,  0x1.ef0066p-5, -0x1.3ed186p-5,  0x1.d55ab8p-3,
     0x1.8b8ccep-4, -0x1.0d1450p-3, -0x1.f78bacp-6, -0x1.31b2f0p-7,
    -0x1.5c5ad2p-6, -0x1.431284p-7,  0x1.17124ep-4,  0x1.8a45b0p-3,
    -0x1.dd35a4p-4, -0x1.44ba7ep-5, -0x1.661e4cp-5, -0x1.fcf76ep-7,
    -0x1.38b950p-6, -0x1.05a074p-10,-0x1.64e6b6p-4, -0x1.030a68p-5,
     0x1.78bf0cp-7, -0x1.c3459ap-9,  0x1.3b5048p-6,  0x1.03bfccp-7,
     0x1.22c940p-8,  0x1.cf2428p-9, -0x1.60b1e8p-9,  0x1.ecec6cp-7,
    -0x1.61dae4p-7, -0x1.15098ep-11, 0x1.a85556p-11,-0x1.666004p-7,
    -0x1.46a5a2p-5,  0x1.b8e43cp-6, -0x1.1d5e50p-6,  0x1.d63b76p-11,
     0x1.2f421ep-8, -0x1.1c5712p-4,  0x1.dba204p-7, -0x1.505eb0p-5,
    -0x1.26b6f4p-11,-0x1.197812p-5, -0x1.1a37f0p-3, -0x1.99007ep-3,
     0x1.5e8e4cp-9,  0x1.a78542p-5, -0x1.3fede6p-5,  0x1.4efcd0p-5,
    -0x1.ecda4ep-12,-0x1.f0d17ep-6,  0x1.1e641ep-2,  0x1.c5c0aap-2,
    -0x1.729312p-4, -0x1.384288p-6, -0x1.550970p-8, -0x1.1776c8p-4,
    -0x1.585894p-5, -0x1.ec2538p-8, -0x1.3d271ap-3,  0x1.70f280p-5,
     0x1.c05bc2p-5,  0x1.0f0ab4p-9,  0x1.94236ep-7, -0x1.8ca818p-6,
    -0x1.1e0e7ep-8,  0x1.2d06f4p-7, -0x1.1a25c2p-7, -0x1.330ae2p-8,
     0x1.b20236p-7,  0x1.0b8824p-7,  0x1.01e5b2p-6,  0x1.65e46cp-5,
     0x1.a5cd56p-8, -0x1.d357f2p-6,  0x1.155d9cp-5, -0x1.5916c4p-7,
    -0x1.94b4b2p-7,  0x1.31e700p-7, -0x1.58ae94p-5,  0x1.742d40p-7,
     0x1.0c500ap-6, -0x1.a55f7cp-8, -0x1.55baeap-5,  0x1.ab3608p-6,
    -0x1.da8634p-6, -0x1.a326d4p-7,  0x1.2adc14p-8, -0x1.49248cp-7,
    -0x1.1780cep-4,  0x1.6a888ep-9,  0x1.7d4e2cp-6, -0x1.3c09e8p-3,
    -0x1.9bdbe6p-4, -0x1.43d828p-3, -0x1.ff2b0ep-7, -0x1.a4db4cp-3,
    -0x1.23bd8ap-3,  0x1.203a50p-4, -0x1.b3e306p-3,  0x1.2372acp-1,
     0x1.134f28p-3,  0x1.eefd84p-3,  0x1.41bd10p-8,  0x1.b574d0p-3,
     0x1.c525cep-7,  0x1.7f2c82p-4, -0x1.856890p-3,  0x1.76b9bep-3,
    -0x1.b2cc82p-3,  0x1.c4f274p-6, -0x1.25b59ep-5,  0x1.593b4ap-4,
     0x1.ec216ep-5, -0x1.69c658p-8,  0x1.0d3f28p-4, -0x1.f6d28ep-5,
     0x1.896ab2p-6, -0x1.004284p-3,  0x1.88e936p-5, -0x1.7c4e7ap-3,
     0x1.c4f34cp-6, -0x1.9d0d3ap-6,  0x1.1fc566p-6, -0x1.ef408cp-7,
     0x1.f7ff9ap-9, -0x1.542a14p-7, -0x1.3ae110p-7,  0x1.e43b14p-6,
    -0x1.16de92p-6,  0x1.df8baep-6, -0x1.8f5442p-6, -0x1.9bde5cp-7,
     0x1.606350p-8, -0x1.14e32ep-5,  0x1.074b6ep-7, -0x1.1ab7e4p-5,
    -0x1.acf2b4p-5, -0x1.1036b8p-5, -0x1.5fc7f6p-6,  0x1.cce0f4p-5,
     0x1.02f284p-5,  0x1.22c2f8p-6, -0x1.6bc2e8p-8, -0x1.9535c6p-9,
     0x1.2ec378p-7, -0x1.12e696p-4,  0x1.81feb8p-8,  0x1.7169c4p-2,
    -0x1.e13a96p-4, -0x1.1fd618p-5, -0x1.69c082p-5, -0x1.743014p-7,
    -0x1.2ad7b8p-4, -0x1.2cf590p-4, -0x1.0f9f60p-3,  0x1.9f2586p-2,
     0x1.89087ep-7, -0x1.f86734p-5, -0x1.3cde4cp-7, -0x1.d0cd44p-7,
    -0x1.3839d6p-9,  0x1.39dc26p-5,  0x1.20a6d6p-5,  0x1.af8b58p-7,
    -0x1.f8209cp-6, -0x1.8291b6p-5, -0x1.621568p-7, -0x1.c0fa2ap-5,
     0x1.9e0bfap-8, -0x1.dab7b6p-6,  0x1.3ff4eap-7, -0x1.27dd86p-6,
     0x1.a88dbcp-9,  0x1.d836ccp-6, -0x1.8414eep-7,  0x1.6c3588p-11,
    -0x1.6322c8p-4, -0x1.33868ap-4, -0x1.63333ep-4,  0x1.05c7aep-5,
    -0x1.19e250p-4,  0x1.7dd578p-3, -0x1.7746c0p-7,  0x1.7f203ep-5,
    -0x1.557728p-1, -0x1.067652p-7, -0x1.84dbc0p-4,  0x1.97dd92p-2,
    -0x1.cd241ep-3, -0x1.4a664ap-4, -0x1.bf75c4p-3, -0x1.723cfap-4,
     0x1.b2f958p+0,  0x1.84a37ap-2,  0x1.f4386cp-3, -0x1.cda848p-2,
    -0x1.02919ep-4,  0x1.78d836p-1,  0x1.a0aae6p-2, -0x1.88cda0p-2,
     0x1.2a33dep-1, -0x1.20fc6ep-9, -0x1.c25194p-3, -0x1.429090p+0,
    -0x1.604b0cp-2,  0x1.0c3072p-1,  0x1.5dda7cp-2, -0x1.41f232p-3,
    -0x1.520236p+0,  0x1.2cfed0p-5, -0x1.e0d254p-4,  0x1.c14128p-3,
    -0x1.ee3170p-4,  0x1.3039c6p-3, -0x1.bea318p-4,  0x1.afaf9ep-4,
     0x1.796faap-3, -0x1.3df02cp-5, -0x1.fdb0d0p-5,  0x1.1809c2p-8,
     0x1.6688f4p-5,  0x1.00a010p-7, -0x1.9c95eep-5,  0x1.4b3730p-3,
    -0x1.2bccd4p+4, -0x1.2f5da2p+4, -0x1.1e9a68p+4, -0x1.171708p+4,
    -0x1.13ad90p+4, -0x1.220b24p+4, -0x1.221042p+4, -0x1.0e7ee4p+4,
    -0x1.2f42ecp+4, -0x1.1b20e0p+4, -0x1.0f54c0p+4, -0x1.28f8f0p+4,
    -0x1.16c988p+4, -0x1.221d18p+4, -0x1.2068d8p+4, -0x1.30833ep+4,
     0x1.1de99ap-4, -0x1.d93030p+0,  0x1.e24aecp-1,  0x1.9fe9bcp-6,
     0x1.0ee41ep+0, -0x1.6429e8p-7,  0x1.4ad0f8p+0, -0x1.8467cep+0,
     0x1.1746cap+0, -0x1.718930p-2, -0x1.0fbd20p-7,  0x1.80ee3cp-1,
    -0x1.c1ff70p-5, -0x1.79a926p-3,  0x1.e82e62p-2, -0x1.72a8f0p+1,
};
